/**
  ******************************************************************************
  * @file    network_data_params.c
  * @author  AST Embedded Analytics Research Platform
  * @date    2026-01-21T16:52:15+0100
  * @brief   AI Tool Automatic Code Generator for Embedded NN computing
  ******************************************************************************
  * Copyright (c) 2026 STMicroelectronics.
  * All rights reserved.
  *
  * This software is licensed under terms that can be found in the LICENSE file
  * in the root directory of this software component.
  * If no LICENSE file comes with this software, it is provided AS-IS.
  ******************************************************************************
  */

#include "network_data_params.h"


/**  Activations Section  ****************************************************/
ai_handle g_network_activations_table[1 + 2] = {
  AI_HANDLE_PTR(AI_MAGIC_MARKER),
  AI_HANDLE_PTR(NULL),
  AI_HANDLE_PTR(AI_MAGIC_MARKER),
};




/**  Weights Section  ********************************************************/
AI_ALIGNED(32)
const ai_u64 s_network_weights_array_u64[6706] = {
  0x3d4535603d156f9cU, 0x3e2065b3be32e95bU, 0xbddc9806bd0ff32fU, 0x3e3bd2ddbe839c69U,
  0xbe47dcc7be2e5615U, 0xbd5edf4ebe6a824cU, 0x3e237194be1ca748U, 0xbd8d2c683dce5a4dU,
  0xbd6ab841bda68139U, 0x3e6b5d13be10858dU, 0xbc42f74cbe4cdc4fU, 0xbdd2586a3deec5ebU,
  0x3e0e0404be3ea2f3U, 0x3e081e043e8138d8U, 0x3e0ccc9b3e76acb2U, 0x3e61dcadbe0bc86eU,
  0x3e5cb00b3e20fce5U, 0xba633a0d3cc686ddU, 0xbe6a1f2a3e807180U, 0x3d869bb63e493fd8U,
  0xbb236e83bdb3c013U, 0x3e1f9fdabddc86b9U, 0x3d501da8bd40c91cU, 0x3e383917be4f9ea7U,
  0xbdddb8fdbd7da976U, 0xbe242afa3e03a7c2U, 0xbdeae231bd9e7102U, 0x3e6d27fd3e54c940U,
  0xbcff167cbe4661a9U, 0x3d8130e73da7e42aU, 0x3ce051173da0432fU, 0x3c391ebcbdb61e38U,
  0xbe188b72be1e2825U, 0x3c1cc4d7bd987c25U, 0xbe2db35a3d46e1b3U, 0x3d549904be0bf3f5U,
  0x3cfc17be3dc644d7U, 0x3d49aedf3e6de111U, 0x3dbd3007bdab75e1U, 0x3d48fe79bdfc565dU,
  0xbd72be5a3e42c2caU, 0x3d5337e3bda1cd20U, 0x3d0a5d06bd751220U, 0xbd379241be4d40ffU,
  0xbe1ecf37be41b255U, 0xbe0973b2be7c5491U, 0x3d6fd74d3c3491a4U, 0x3e19729dbd95c196U,
  0x3e22f907bdd55e7cU, 0xbe33a4273d592ec3U, 0xbe70eae5bd1040faU, 0x3e4bd6cb3d107c33U,
  0x3db2774dbba0a926U, 0x3c88ddfa3dfbace6U, 0x3e51b46dbe6b51cbU, 0x3d623a5fbddd4992U,
  0xbe8cfbd93e7353daU, 0x3dd17e853de19a9aU, 0x3dd13b39be8a5f6cU, 0xbd0088f53e577d32U,
  0x3e27acae3e7f7abfU, 0x3dd576893e5961a9U, 0xbe45f5323e21e788U, 0x3dc4ef653e5292e5U,
  0xbd60317e3e703ce2U, 0xbe504eee3c79253aU, 0xbde75c11be212ee9U, 0xbe0bbb30bd0e9ad1U,
  0x3e3433223d907c0dU, 0x3cb90937bbb3752cU, 0xbe87654cbe3b9d18U, 0xbe6d10cdbe78510eU,
  0xbe1f8058bdd57f7fU, 0x3e5e95323e86e081U, 0xbdd4d2b43dfcff2cU, 0x3e0b53133e1c20dcU,
  0x3d6af8033e4c03f7U, 0x3d69e58fbe3889f2U, 0xbd628f6dbe2b1e96U, 0xbe72e5d6be5acb83U,
  0x3e4add88bd6a4489U, 0x3e3a6c8a3e6fe693U, 0xbe72a52b3df79974U, 0x3e1a899a3e1b7c7bU,
  0x3d0c431f3e169268U, 0xbc771ee6bc1761f5U, 0x3d29db173e2c88a9U, 0x3e0b1b42bdf8855cU,
  0xbd9f31af3e529524U, 0x3d052b513dce80abU, 0xbe8fa02fbdfc7ed6U, 0xbe2b038abe664bfdU,
  0x3e8391d03e33848eU, 0xbe6377453d3d55a7U, 0x3dde92643e7e903cU, 0xbd82b829be846b3cU,
  0xbe79e201bdeb3172U, 0x3e8987f3bd2b35feU, 0x3d3814a73e6dc8c7U, 0x3d9249efbd135f6fU,
  0x3de1767ebe68868fU, 0x3e5ed4e13b875757U, 0xbdc038e33e0bcb4fU, 0x3e308d01bb7c7796U,
  0xbd25e9d03e621ee3U, 0x3d2723293d1c05d3U, 0x3e310d63bdbf05b7U, 0x3e2e4c12be49a48fU,
  0xbe3d1c7cbd9eb4e0U, 0xbe3c8ee8bd56b9f2U, 0x3e2966223dff4e62U, 0xbe221239bca4ba33U,
  0x3d6fdc3f3e5da07cU, 0xbd7a3deebe1ca229U, 0xbe63e7613e6d14f7U, 0xbe40a2c03d97af73U,
  0x3dfc94db3a06af2cU, 0xbd41b20bbe5a2570U, 0xbcf5a0a73d23b913U, 0xbde9872b3dfe3989U,
  0x3cd355913c98fa10U, 0xbb61e4023d031f57U, 0x39a5a9063b56fb27U, 0x3ce404be3ca28e3aU,
  0x3cd211b7bc35df5cU, 0x3cbd50233cf513b7U, 0x3cadf4ed3ccd9c0dU, 0xbc1c8f8b3cab06ffU,
  0xbcb99d06bd5c7d6cU, 0xbdfedbbe3cf8a40bU, 0x3e2b1b92bdf01764U, 0x3dbb25ab3e12962cU,
  0x3e18ec1e3dd8bbe7U, 0x3e1cf76abdb48282U, 0xbdf8fb0e3e246aa2U, 0xbd7cb8973e1c0a98U,
  0x3e16b7663ddc2fd3U, 0x3e1f308e3cb0400cU, 0xbdf5c05e3dcd5413U, 0x3d4bf5abbdc65ff3U,
  0x3b8c8d6c3dc3c916U, 0xbe0bb5713d77ed06U, 0x3dcbc9e83e122bf2U, 0xbd792309bd8b7d31U,
  0x3dac95b33de2e7deU, 0xbd35ce423e27795cU, 0xbd2cb776bd816270U, 0xbd2acbf63d2f9c08U,
  0x3de9b5a63d1107aaU, 0x3e29bdbdbd2d1fbeU, 0x3d849373bdde51e0U, 0x3e0aa8abbdd39a4eU,
  0x3c0dac343dfa8460U, 0x3dd7e97abe14c28dU, 0xbd2f35e63df18534U, 0xbe017d7fbde3fe65U,
  0x3d9f73963dcd047cU, 0x3d395eb8bdfacd22U, 0x3b4d65ba3e15ed93U, 0xbd8cb435bd74b418U,
  0xbdc4b0f33dd99007U, 0x3e03e763bdb5e920U, 0xbd0cc6aebd140451U, 0xbd07adaabd2debe3U,
  0x3e326357be094120U, 0x3d0dec14bdcf79c7U, 0x3e03a7e23bbc7ca7U, 0x3e054d63bb49127eU,
  0xbe06508fbd6cd980U, 0x3c0801363e13a61bU, 0x3d50f84d3e0b3a1fU, 0x3d904a39be0eea08U,
  0x3d3142bdbd16ada9U, 0x3dcb6762bba0321eU, 0xbb84d9143dfb1e50U, 0xbdbbeaabbcc8196fU,
  0x3de420933b97eba7U, 0xbdbe15d13de21e60U, 0xbe0328cd3bebf9baU, 0xbd13d3ad3c20280cU,
  0xbe1dc0923cb06b3cU, 0x3def335b3e1bfbe0U, 0xbd16f4ab3c05a29bU, 0xbd6fa02fbd653ea0U,
  0xbdaee75c3d9d3befU, 0xbd77d3b6bd819af0U, 0xbdbfbe29bdc5821cU, 0xbd8e8328be2ed33fU,
  0xbdb2ff2cbdb388a1U, 0x3dc4c3143dffe485U, 0xbdf2e4b03df6c2b4U, 0x3e0601193dd3aab3U,
  0xbe14ec0bbe24ab10U, 0x3db6ea9a3d9ef599U, 0xbb2e61323d73028eU, 0x3cd32fd9be225c2fU,
  0x3dcf1308bdcaff9eU, 0x3d3b4a983c0085a7U, 0xbdffeeb4bd965addU, 0xbdbd61013d35a968U,
  0x3d44de50bcf52da0U, 0x3e0e46933c0cebe4U, 0xbdd07ce93c51c0b8U, 0x3d6415813daac184U,
  0x3de4a9973e0cfa8fU, 0x3dad4a6d3d97440bU, 0xbcfa5f243e28dc84U, 0xbd1a29b83da60650U,
  0x3da43dbdbcd9eb07U, 0xbdb66a433e0e1b17U, 0x3d997c5cbcc500d3U, 0x3dc63e66be09f15fU,
  0xbd0b59f0bdf2f580U, 0xba1896edbd74d6e2U, 0x3e022acf3ce214f1U, 0x3d7d6ab0bdbbd639U,
  0xbd96bcac3e11d487U, 0xbda2fdd0bde837e4U, 0xbde22c18bd0753dfU, 0xbb634f19bb40b5c9U,
  0x3e1a78e8bddbf60dU, 0xbdf33cbe3d0e0a23U, 0x3dfac3ffbd07a308U, 0x3ccb461d3de71a2bU,
  0xbe0b430abd2d6ae3U, 0x3df412b73dec75dbU, 0xbd53a28c3d1f4020U, 0xbe291f57bca809a3U,
  0x3e1f7f18be161c05U, 0x3e269a513d6d217dU, 0x3dc619063b97c64aU, 0xbd61d2363c8ce47eU,
  0x3d14e0fa3c250d9eU, 0x3d84984dbbb71a04U, 0x3e132a953ddfa399U, 0xbc2515e2be0ec5daU,
  0xbdb439233da88bbcU, 0xbd49e9043d75c3f2U, 0xbd094fbe3ca8bc38U, 0x3ccc50043deb6e3bU,
  0xbdcebd78bd8ad337U, 0x3d0cd4763e1a1575U, 0xbd9e468b3d29628dU, 0xbd10ceea3d97c4aaU,
  0xbd82698ebd668778U, 0xbd0d5e283e0f4083U, 0xbc8232893dd5f612U, 0xbd67f93f3c9e8388U,
  0x3b1e090ebd69606fU, 0x3d2ebed43de588d8U, 0xbe0eb1d23cef70e0U, 0xbbb9b61dbd493fd5U,
  0x3e154ac53dd10cb9U, 0xbd11d7d03da2918cU, 0xbd8ea175be3547d4U, 0xbe3533863cd99326U,
  0xbc9947de3d124dabU, 0xbe0d3dd93d2de503U, 0xbd1b2424bd5ae7ceU, 0xbc4528c6bda25f81U,
  0xbd951c863db1ba23U, 0x3e1ca8813db55584U, 0x3dc659f9bdd67230U, 0x3d3f681d3b11db0eU,
  0x3dbd1115bda75477U, 0x3c91cddf3dcc9977U, 0x3d956cef392190c0U, 0xbce779ac3d17afdcU,
  0x3ceb7660bde7a654U, 0xbd80f5493d5c69c4U, 0x3e3bacd2bd9bb89dU, 0x3d856d983dc35c5eU,
  0x3e17404e3a86beb1U, 0xbcc3615ebcd3cc43U, 0xbd3af10abdd7b7d4U, 0xbd79a3183d9a85fcU,
  0xbd2bc81c3bbc3573U, 0x3e224acbbdf2e7a9U, 0x3e15146fbde7bf2eU, 0xbdb936ffbe2a8ee5U,
  0xbd4c93783e11397cU, 0x3d956abebdf59781U, 0xbe10e1a83c170e68U, 0x3d070949bce68c84U,
  0x3ce22e033e24d77eU, 0xbd915f44bccd4594U, 0x3dec71e93da47b5bU, 0xbe1e9d1d3daae6e6U,
  0x3e0756b13de955adU, 0xbcf78107be093087U, 0x3d22756d3db14204U, 0xba9293ecbd8fe333U,
  0xbddeede33c992005U, 0xbdfa4d4cbe09957aU, 0xbd9cc608bb9e32aaU, 0x3d6640773e2c462bU,
  0x3dba3ed63d3ccaf3U, 0xbc4f27cf3daf7510U, 0xbdf487323e18f780U, 0xbe26cb95bdc8d150U,
  0xbcc88f3ebd95c8efU, 0x3dd053ae3d320f70U, 0xbe35738c3dd60eecU, 0xbdd64e693d616793U,
  0xbdbf7732bd419d5aU, 0xbd3413353dffb293U, 0x3d96f80abde6ef7dU, 0xbdb907c4be0447bbU,
  0x3dbdb3f23dbce7e5U, 0xbd1467b93b76ef73U, 0xbe26567c3e002e31U, 0xbc77d69f3cd995b7U,
  0x3c9654e93da3ea30U, 0x3d8ba39f3d2fc8dbU, 0x3d2104eb3e352318U, 0x3d86153e3d82d014U,
  0xbdc7bc5f3d72529aU, 0x3d9775a23e1b3cbfU, 0xbd8548073e38875aU, 0xbe0a6a6c3d986a13U,
  0xbd24f8483d43d1edU, 0xbc79f96bbcce04d6U, 0xbdcdcee43e1b8194U, 0xbd3054f83dfcedb8U,
  0x3ca17b28bd8825f1U, 0xbd955dbd3e041cabU, 0x3c89693e3e034fbbU, 0xbd9d7ddc3cb0c661U,
  0x3e312cda3e359734U, 0xbdc93918bd7ac5bdU, 0x3e18578a3e01759bU, 0x3de4564b3e335717U,
  0x3e0ec980b91465d0U, 0x3ccaaaec3cd2eb96U, 0x3e0d56ccbd9a37efU, 0xbe005f9e3d103ea1U,
  0x3cc0f4853e282e6bU, 0x3e1649483e1690b5U, 0xbd8373523e104454U, 0x3c579fcbbcc11436U,
  0xbda4632ebda1ff04U, 0x3d117bd6bd18b3a6U, 0x3e00ce81bd207820U, 0xbc72fe38bd5b9b1bU,
  0xbdd3e8a13e207b79U, 0x3dda4a5cbd10c4e7U, 0x3cb288d73d5c72beU, 0x3da725f93e27154eU,
  0xbdffe7e1bce494b0U, 0xbdbc61c3bd7d1f6bU, 0x3db703aa3d577789U, 0x3db1002e3d8ed139U,
  0x3ce685583c163d5cU, 0x3de1472abde75e20U, 0x3cc0bedd3d82a8cbU, 0x3e1e7445bdb0261fU,
  0x3e0a8c43bcf5c044U, 0x3d6007c33b563211U, 0xbaa0d029bdcd1308U, 0x3dffb8df3d16aca0U,
  0x3d9120b73dc76f76U, 0x3d1d41e93e268468U, 0x3dcd64933e244579U, 0x3d88925ebd20dcd7U,
  0x3ad976d0bdc4ce5fU, 0x3dd84942bdde3e23U, 0xbddb23a4bde488a6U, 0xbdbd0acc3dfc9ce1U,
  0x39c319563d544f63U, 0x3dc03c5d3d1f6220U, 0x3cb6c424be27a2c7U, 0x3db10baabc82c316U,
  0xbd5680523dc647f6U, 0x3e0b7a493d62f5fbU, 0xbd0cefc53c74cc1dU, 0xbe20c6c0bc65552aU,
  0xbde20691bd657236U, 0xbdbd2e593e2e02f3U, 0x3c5013f3be010ae9U, 0xbddfea3dbd3976b7U,
  0x3caca0533e050559U, 0x3dce9e633dad67dbU, 0x3e13dcf33c54e9a0U, 0xbd97243e3da5a00cU,
  0x3cef4f7fba460447U, 0x3d765919bca15c39U, 0xbcb46f23bd7d16f7U, 0x3e1a31573d04c899U,
  0x3d0b89523d7a0b91U, 0x3e0bfa3d3d6e8685U, 0x3d9839aabdbec309U, 0xbdbc7832ba626c6bU,
  0x3e28dd993db8a437U, 0xbdf4b4f4bcd5d079U, 0x3db59534bbaded6fU, 0xbc1b46a13cd7f779U,
  0x3d5333e93d1cc7aeU, 0x3c3b7407bda96c04U, 0xbc89e414be133f01U, 0xbe24f09cbdf8d94aU,
  0x3dee73203d6e7ec8U, 0xbdb5a1123e12ddcdU, 0x3b13487abdb1986fU, 0xbdcca1c1bc3d275aU,
  0xbd757ed9bd12acfdU, 0xbce7742dbd9527c4U, 0x3defb5a2bceaa42aU, 0xbd8a450bbda8b465U,
  0x3d86ad87bcc23969U, 0x3d999c9fbda1d20dU, 0x3e16a7943de5659dU, 0xbdb2a3a23dd23857U,
  0x3dbaf473bda95b84U, 0xbdf774ff3d8cd2ffU, 0xbe047ab2bdf542c8U, 0x3cedbbbc3d8b5d6aU,
  0x3da42013bde31f50U, 0xbd87b3153e1fe329U, 0x3d9fdb643d2ed375U, 0x3d0b5dabbe0f1328U,
  0x3d1585823e06d5d2U, 0xbd40d4823c9fa17dU, 0xbda7b5653ce9695fU, 0x3e168c72bdb13b88U,
  0xbd89c555bd3724f9U, 0xbd145d36bd7f2dd7U, 0xbd17eed63e1283f2U, 0x3d7184683cec4e0eU,
  0xbd995417bdc62a81U, 0xbc00eeb53dab9bdbU, 0xbdfd7e773c244047U, 0x3dfa0855bd5190c5U,
  0xbcf84280bd8b55f1U, 0xbdaf8d0ebd23edd6U, 0x3d3c1a2b3d71d02bU, 0xbdb0fa713cc00894U,
  0x3e089b23bc95686cU, 0xbd3b77c5bd88b4b2U, 0xbe04fa9d3db188b8U, 0x3d686d49be08e064U,
  0x3dd25e05bdd62113U, 0x3d276ff43e0402e6U, 0xbd69e48bbdd5f184U, 0x3d5b2973bd3ebb9aU,
  0x3cd70801bdc246d0U, 0xbda844173e21dd25U, 0x3def9f03bd7d4f64U, 0x3e367ddb3d7dc05aU,
  0xbd66afbc3e183b71U, 0xbde2910ebd26f15aU, 0xbda5583fba6d9018U, 0xbbe4f4243dd69f68U,
  0x3e0fdc02bda17190U, 0xbdfdd7563bfe5ea4U, 0x3d92d3573ddd3d1aU, 0x3cfad23e3e0e8ab6U,
  0xbdf5b0da3cea8168U, 0x3db3421abd0e8284U, 0x3d894fb6bdd338a5U, 0xbd752db0bd8a9a94U,
  0xbd6f5dcabd15838aU, 0xbe106195bd2eaf09U, 0xbd264a943e27c3ddU, 0xbda2d7b13d4e18c0U,
  0xbd51e1b9bdad9716U, 0xbd866b78bc527796U, 0x3d4b4bfdbd14dd7eU, 0x3dd107a23dc64a7cU,
  0xbde9df94bd898184U, 0xbd4b8a53bddb3248U, 0x3dab9bf13c881704U, 0xbd8263a5bdfbe6ebU,
  0xbcb82d773daa2919U, 0x3cbdff57be143aa4U, 0x3e1252e2bcb46090U, 0x3dd611edbc8973b7U,
  0x3e01fa1cbb6771fdU, 0x3cd794a1bcfc37f2U, 0x3d34e2c43d97bf8fU, 0xbcc76c9a3e25a691U,
  0x3d3b7c163d8a63bbU, 0x3e1754ee3dc6435aU, 0xbe072813bd92bf0fU, 0xbcc91363bd3fb831U,
  0xbd6165a23d7c581aU, 0x3e074ea0bdda6050U, 0x3dcd7074bc995c0cU, 0xbd7bab39bdf8d619U,
  0xbcf2e8363dcf1f99U, 0x3dfb96ac3cc57089U, 0x3de60a31bc102541U, 0x3da9951b3e08e5e9U,
  0x3e0bf5bc3d217d6dU, 0xbd6fb16f3de703c1U, 0x3da3a52fbdcd254aU, 0xb98329e33d4bdaedU,
  0xbccfc0edbe19dd3dU, 0xbdf39e5abdf4fa90U, 0x3cd646d3be159695U, 0x3e19a885bdab87adU,
  0x3d2191e4bb98ee13U, 0x3dcca0b43d2c828bU, 0x3dbb6c0c3df93a52U, 0xbe14bb553ddb702fU,
  0xbdf4d4c83d97e37dU, 0xbe1cd7b9bddfeaa3U, 0xbdd85ba83e1d982eU, 0x3d274b05bd8aa1eeU,
  0x3e0d5eebbd36ca5fU, 0x3d3b7537bddcc09fU, 0x3e2b608abe180e54U, 0x3c9f8d64bd936d9bU,
  0x3e10dff93bc6ca7eU, 0x3d87e94d3d725fc4U, 0x3be7ab1f3d496362U, 0x3d1756363e0c9530U,
  0x3deaa7033b6ad05eU, 0x3c3e33143e1a1c84U, 0xbc149627bd82888eU, 0xbde499d4bcb9ef60U,
  0x3ddfbe43bdef11afU, 0x3de5e2653dbb6fb1U, 0xbdc1de5abd25f245U, 0x3b69619d3df7b416U,
  0xbdbc58fa3db2c864U, 0xbc88d8233dfe2c44U, 0xbd1e0d81bdcdf568U, 0xbdccad2e3d799a81U,
  0xbc763ea33e0da46eU, 0xbdab0340bd9c9841U, 0x3de4d8143def6c89U, 0x3df2b6213d11459dU,
  0xbdbc15783d2d0cbbU, 0xbd1ece73be203478U, 0x3e08410a3d1707c1U, 0x3cf2e35ebe04d0ebU,
  0xbdc046fa3e0607d8U, 0x3d2422f03b64c801U, 0xbd455500bdfbc926U, 0x3cf81ee2bcc1f09bU,
  0x3d958bef3df113b4U, 0xbd4157743d21cadbU, 0x3daed35dbdee8917U, 0x3ccecaaabe0855ccU,
  0x3dee4cf2be172c9aU, 0x3d5d33703dd7b0e4U, 0xbdb71a5d3e0b886dU, 0xbd6a0c83bc69cb5fU,
  0x3d7878e7be1a9546U, 0xbe0d368c3e077d8aU, 0xbe12134abd8a6f00U, 0xbe0ccc81be239554U,
  0xbe17a3c03dbb9a4cU, 0x3dfd26a23dc32e72U, 0xbd98ade4bcf279f5U, 0x3dec292b3c8e5cfcU,
  0x3dee2fe9bdf527f6U, 0xbcdcb576bd8da1b1U, 0xbb9e27a53d9fa9dbU, 0x3de32924be128ed9U,
  0x3c933c583e088958U, 0xbdb07cca3b5b3a2fU, 0xbda056003c892302U, 0xbe013b65bc20cb7fU,
  0x3d9c61d33c15336fU, 0x3e13a61a3dcb2b05U, 0xbd8f1e78be1dc6f0U, 0xbe08e4043cba4f9fU,
  0x3e2b4b00bdc33973U, 0xbd6a42793dc0a50fU, 0x3d39fa4b3db89a6cU, 0x3d870dcdbdcbf46aU,
  0x3db65da13d85e15fU, 0xbd5c40ed3d653a85U, 0xbdc48c673e058821U, 0xbd2f8b95bd9fcd52U,
  0x3d855be53d215b7bU, 0xbd8eda3c3d4c5331U, 0x3e2d2e51bb5a5b9eU, 0x3dd932143c8cd200U,
  0x3d2166dabc61acf2U, 0x3dcaf3b0bcfc8005U, 0x3e1e29063cb61d5cU, 0x3bc105793dbe0898U,
  0x3d79ef8e3dd599a4U, 0xbdb1b7933d33a2d4U, 0x3d7ecc873dfbc99fU, 0x3e30d59dbc8a0fbeU,
  0xbbe44c643e012d5fU, 0x3e25a33e3d4e7186U, 0x3e032e413dbfe677U, 0x3dfa39e6be2bd233U,
  0x3d10b6babc3742d4U, 0xbddc2c033d960035U, 0x3d8ccb4fbdb78d4aU, 0xbc32f632bc81486bU,
  0x3e0c5a79bdba717cU, 0xbd7392babe2b17c6U, 0x3e06a27c3d67867eU, 0x3d1f2930be22e4ebU,
  0x3e27035abda72707U, 0x3de44beebba4da80U, 0x3e1cc318bc744e74U, 0x3c6223183d845111U,
  0x3e02655fbddaf1e3U, 0xbce6b7f4be316560U, 0x3dd9c760bddcc519U, 0x3ddad7263df6e62fU,
  0xbdd97c86bdeee15bU, 0xbd3ef0473da551e7U, 0xbe0406f13d0ec6d4U, 0x3d084e823e05b895U,
  0x3d01589bbdd6429cU, 0x3ce4def83dbe2c6cU, 0x3e04b7a13ced25bfU, 0x3cc65565bde18636U,
  0x3d4e5923bdcb5490U, 0xbcb15bc0bdde9c5bU, 0x3deddd13bda87b9eU, 0x3c5dcf373d16d2f0U,
  0x3cece14b3dc12c6fU, 0xbdd09a47bc8584fdU, 0x3d9e98f03c8716d1U, 0xbdb3fafebdfb232aU,
  0xbb6363453e02505eU, 0x3e1d3bc7bd4e02f1U, 0x3d830094bd124cedU, 0xbdd5f957bd3d9a1dU,
  0x3dc020d83d78ff69U, 0x3da66e78bda36816U, 0x3cf38d5e3e211dc9U, 0x3da9fc20bc775937U,
  0x3e1192193de12296U, 0xbdddce18bd74e896U, 0x3c906c47be0e44e0U, 0x3d79178d3e17ebb2U,
  0x3ce6ebf23d82442fU, 0x3db7f5f8bd923605U, 0x3cab3b13bd9d3efcU, 0xbdb342cd3dc83356U,
  0xbe0140c7bd2da3e6U, 0xbdb450373e265976U, 0x3e08d478bd9da32bU, 0xbb417e803de0a9cfU,
  0x3ccd528c3cd6f49cU, 0x3e1507da3da3f3a9U, 0x3e28a3c2be0eb422U, 0x3e15de9a3d398f8aU,
  0xbe1e7dc83de6479eU, 0x3de107453e13d50cU, 0x3db9abf33de99e0fU, 0x3e0fd511bdb16c01U,
  0x3d806c3ebe00337dU, 0xbdf1970d3d72c805U, 0x3e19c331bc926a54U, 0x3c0a3f68be302ad4U,
  0x3cbff1c63dcfda2dU, 0xbe299ec6bd1e2d31U, 0xbcda1bf33e2193e2U, 0xbd1ca002be0c3925U,
  0x3e1382b13bdded40U, 0xbd485432bd7edaecU, 0xbd4dcc15bd88a99eU, 0x3e023bbf3de5bdb3U,
  0xbdf6d2e2bdf679c1U, 0xbcbac0813c587228U, 0x3e0a0b0cbe0ebaf3U, 0xbdf7025a3d114626U,
  0xbcc9a978bd25dc6dU, 0xbe19c11e3d6a84f8U, 0xbd3efc22bdee0956U, 0xbb781610bdb1feb5U,
  0xbdf7cc56be07a1faU, 0xbdf76c55bcff3778U, 0xbd1ceaf33e010480U, 0xbd008e41bdbdede8U,
  0xbe146696bb04ace7U, 0x3deb969b3d8cf400U, 0x3cad656e3c13366bU, 0xbdf3e5fc3d879b18U,
  0x3de350d6be0f0dd6U, 0x3e1aefbcbdd192c9U, 0x3db32870be34d22cU, 0xbe05a6f0bd0c518fU,
  0x3c4045af3e193b6dU, 0x3be92476b9ee6754U, 0x3df58be13d8ce781U, 0xbd0f6a40be1b2084U,
  0xbd80a4cebcd9fa16U, 0x3dcd9b6b3d55f1a5U, 0x3da0df5f3cb088f2U, 0x3e1db9913da8ff64U,
  0x3c8861403c9f3c50U, 0x3d2a7158bb7f309aU, 0x3da3afb33daf5188U, 0xbbf3f4a9bcd41ba5U,
  0x3ca49b55bdf6eb10U, 0xbdfab29fbdf6e578U, 0xbdaebe72bd0ccd7eU, 0x3dd471e73d4f05c8U,
  0xbdf001f63e0dce96U, 0x3da37fdbbb8e54c1U, 0xbca90b023df387f2U, 0x3dbd0c163bfe94d6U,
  0xbda45c64bdc264ebU, 0x3d7dfcbc3c5c36f8U, 0x3e0097fe3b8fc30fU, 0x3d0b0489bd912b6cU,
  0xbd8284ed3dea6afdU, 0xbe09d386bdfbcc99U, 0x3c955cebbdc861cfU, 0x3daf117e3c489a55U,
  0xbdf8d1f23dedec16U, 0xbb8277563e20c14fU, 0x3da2be3dbc6b7138U, 0x3d3fc7ee3deb2578U,
  0xbd8f3b9c3cb85079U, 0x3c296f793e2316a5U, 0x3e2fbf723c3f416cU, 0x3c899f17bd104314U,
  0x3e02327dbe0b0e7bU, 0xbe02d47cbe0c84b3U, 0x3dbbf295bd93ed91U, 0x3d81440a3de2988bU,
  0x3d0aaed13bfdf15cU, 0xbdb05f64be09e41cU, 0xbce8ea1abb81c0c9U, 0x3e02e1203e240163U,
  0x3dc99cdb3d960821U, 0x3de22d6abdf0e846U, 0x3d6fc84b3e0bb80cU, 0x3c54c36abd2f792aU,
  0xbd9922113c810f78U, 0x3d8783143da4e8f8U, 0xbd8dec5c3d1ca0a8U, 0xbd8e90003baf6c22U,
  0xbd2a3aa63ca4fdf5U, 0x3c813d9b3cea14aeU, 0xbdf80d97bc54d2c5U, 0xbd694909bd55d326U,
  0xbc765d683cf03106U, 0x3ddcbdcf3da1937fU, 0x3dbc40de3e021fffU, 0x3de2d0383df8893eU,
  0xbc96725d3dd850a1U, 0xbcc7e50abd05132aU, 0xbe24eaf83db02551U, 0xbd4f22ca3dfce9c6U,
  0xbc711dd9bc6cbeaaU, 0xbbe6e47d3c8aa3fbU, 0xbd18e7863c1abebdU, 0x3d7607d83d84b9c6U,
  0xbe0ac86b3ca4b505U, 0x3e0c270dbdaf5a65U, 0x3e1490c2bd90dfb0U, 0x3de79f233dec995fU,
  0xbd950d9f3e119743U, 0xbb92dbe73d9652feU, 0xbdf958813db1ab0dU, 0x3db48cd4bd9f9d72U,
  0x3c3325693d57b4afU, 0x3dcdb1c03dbb7d96U, 0x3d1acad93de647c4U, 0xbdf764d4be1d73a9U,
  0x3d5fbc1abae65266U, 0xbd8e950cbe053edbU, 0xbdee9520bde9d359U, 0xbcca83d13e11ea85U,
  0xbc9a2952bd996a67U, 0x3da9bb953e11e408U, 0x3da584f53dc951e3U, 0x3d511293bba5d07cU,
  0xbd29ab4fbce975b1U, 0x3d1620f73e01b473U, 0x3df4027e3bc84e12U, 0x3d86a2ef3db304b3U,
  0xbc8bb5f5bcdf5cabU, 0x3e03173a3d1f9c5aU, 0x3c32d4c3bcead95cU, 0x3d10953fbe1df059U,
  0x3d1b4d133e045306U, 0xbd868b133da6004cU, 0x3d1a58f03d5b1097U, 0x3e19ac993d707ce2U,
  0x3dc327b4be01fb1cU, 0xbd801a04bd5a2659U, 0xbdad0afc3dcd47f5U, 0xbe052bdbbe3d0052U,
  0x3b9b22f8bdba9c1bU, 0x3d7a0af33e0f34d9U, 0x3ddbd6903d82bc34U, 0xbe0777973e14620dU,
  0xbd0935be3df2fc60U, 0xbd373a3e3d5fa1c5U, 0x3ce13a32bde9334eU, 0x3d2edeaa3d0e8e57U,
  0xba8e78cd3dd351dfU, 0xbe06e010bde07438U, 0x3cc7b5b93ca593deU, 0x3d2ad24e3e2b148cU,
  0xbc2866103dbc634eU, 0xbd0926173df2b9f6U, 0x3cb9a569bd234ccaU, 0xbdc5e38a3d486e97U,
  0xbe1fad993d8d97a8U, 0xbd71e4d03df43763U, 0x3d0ec2903df53975U, 0x3dbde66bbd99cf42U,
  0x3d4f0c76bd55f488U, 0x3d76fd973e0a9974U, 0x3cc25b5c3defe37bU, 0xbd952669bc82b3c3U,
  0xbd065340bddbfd4bU, 0xbdd5ada3be032e8bU, 0xbddc38ccbdf59c00U, 0x3dee8e673de52a33U,
  0xbd9c46ef3e0e7e66U, 0xbd576ac8bd685668U, 0xbd831553be014b23U, 0xbe180f04bd68e5f4U,
  0x3e1ef902be3684bbU, 0x3caefe0e3e20fa40U, 0xbe1e4a1fbe223cdaU, 0xbe15de053dcd5c98U,
  0xbd9ba6a4bd725d9bU, 0x3d947e043be2566cU, 0xbc85d5d43de98ca4U, 0xbd8476e8bd9b1e65U,
  0x3d9e828b3dbeedacU, 0x3e13e6d7bd0e08f1U, 0xbdd01766bd808619U, 0xbd0194f4399814b9U,
  0xbd2358c43e2db479U, 0xbb7142af3e21e404U, 0xbd1e6184bd615946U, 0xbd4430ef3e184174U,
  0x3e144fc43e02d058U, 0x3e2fae00bdeb73ceU, 0xbdcc4efb3e0e0b86U, 0x3de9cb203daa6bcaU,
  0xbe0347d2bd99b08fU, 0xbd50e5e23e079f73U, 0xbe1202923c4bf5f5U, 0xbe0840cebd23ba6fU,
  0x3df89527bc99dee4U, 0xbd2fc71e3e2f286bU, 0xbe2d8f65bcd747b5U, 0x3c0c5e803e2ab845U,
  0xbe2052a43e0101a4U, 0xbdb87b373ddccdb7U, 0x3e37e5c2bcbb1616U, 0x3e28116e3dc07ee4U,
  0x3daa33cfbdef07f5U, 0xbdff5693be277829U, 0xbe0cfb7d3b242608U, 0xbdf3690bbb44d1eaU,
  0xbdc45fdc3d8f8137U, 0x3e0e96ebbde884cfU, 0x3e2f1016bd2f4565U, 0x3e29cec8bd7f14c0U,
  0xbdf77b163ddf0722U, 0x3e0cb7bdbd64e83fU, 0x3e2665463da88943U, 0xbd9af135be059100U,
  0xbc7996e9bdce180bU, 0x3d900e423e1401aaU, 0x3e2a8c7c3ddfc915U, 0xbe080f62bdb6a79bU,
  0xbc60f86fbdadfa4eU, 0xbe0fc0c93d0acdb3U, 0x3dd1093cbd947190U, 0xbd5bb03cbcb41a9fU,
  0x3cea61443d9d47aeU, 0xbdb6642dbe14d182U, 0xbd4fe4a73df83fb5U, 0x3ddc3dffbddf34f3U,
  0x3e30f1ff3bed43deU, 0x3d8089febd558180U, 0x3e036c893a9c08d0U, 0x3bb7db963d09cafaU,
  0x3e089cbfbe16fd9cU, 0x3d333dfcbbc448e9U, 0x3d6c379a3d52ba2aU, 0x3d90ea763ccc994dU,
  0xbd0fe3053d62b045U, 0xbe16a4d53ccb8001U, 0xbdf9dafbbe16e7f9U, 0x3ce5fe0cbda8baf4U,
  0x3e0a3cbe3b042194U, 0xbd8a74d23d6cfe64U, 0x3d7e5695bd798010U, 0xbd62b809bd38bfadU,
  0xbdd3f9113cc2c80aU, 0xbdc9ffdabd1d8ac3U, 0x3caaa690be07577fU, 0xbde1f3fcbd76e4d7U,
  0xbccb81ee3d7a6bc1U, 0xbc72ef6abdde0de0U, 0x3cd35ea33defcc1cU, 0x3cc8e4e9bad39195U,
  0xbda8551e3dc91b31U, 0xbd8bd47c3dd44f57U, 0xbdce8a47bd3315e7U, 0xbbe73bf63c65f5ebU,
  0x3e105e673d9578d2U, 0xbc885205bcce2cacU, 0x3e1bd044bd40dc76U, 0x3e2b6ced3e31770eU,
  0xbdd27448bdfaaf7fU, 0xbdf50ecf3baad48fU, 0x3e1b7a13bdc99ecaU, 0xb9a578a43d2941f4U,
  0x3d4bedf13e0d6e9cU, 0x3d54360e3c2877eeU, 0x3d88dc23bd5b6441U, 0x3e290def3d6846aaU,
  0xbe1124923e0d28abU, 0x3d5348aabd3bf7a5U, 0x3dc13ec2bcdbf7dfU, 0xbda11e2dbc8fc97fU,
  0xbd45ef393d0c1b1fU, 0xbd7ecb4abdf14317U, 0x3db872d13d0eca8cU, 0x3daddfcfbe04b00dU,
  0xbd805ba6bdc8fb0aU, 0xbc3afef0be031391U, 0xbcbe6c803e050c8eU, 0x3cb303f13da30ac4U,
  0xbe1d4c96bcf06f86U, 0x3c8edec43d82f828U, 0x3e1b50a1bddbb031U, 0xbe32c905bdf2a480U,
  0xbdf9fb41bd6ba7d5U, 0x3c558edbbd5669f8U, 0x3d2b0fbb3e144b1cU, 0xbbba6fd93e26e462U,
  0x3d6b4445bdcacef5U, 0xbd9299563d6b9f0aU, 0x3dc078e9bda12fc5U, 0xbe13a0523de88b01U,
  0xbc301fb13dfd4022U, 0xbcc484f53e3c7e3eU, 0x3cbfc3d53e2198ecU, 0xbcdab1d6bd5df7d0U,
  0xbdbf059bbe039642U, 0x3dd62e603e13ebcaU, 0xbdb847543e348d0eU, 0xbdbad3b83ca618e8U,
  0x3d7b27a0be1d46e3U, 0xbd8105993e0299c0U, 0x3df877413e03c5c1U, 0x3d1023debd1ece66U,
  0xbdfc7f003dcd82deU, 0x3dd0cad13e22229eU, 0x3d64ce483d38c405U, 0x3d690f473d456724U,
  0x3e1233c13bd44114U, 0x3e384ada3c82c274U, 0x3ce973de3e384c92U, 0xbdb333ae3b5e46baU,
  0x3d5ae15fbe0f9ff5U, 0xbd830e103e0543b9U, 0x3d6fe53cbdde15f1U, 0xbcfe0a7fbe0ae9ecU,
  0x3d558266bdbd0787U, 0x3e33acffbd866aeaU, 0xbb0ff0853da5ff07U, 0x3dec17f73e24b713U,
  0xbdac0827bcb9f42bU, 0xbdc5829d3c93768cU, 0x3d1a17ce3c9f9f79U, 0xbe0ad6583d4a4451U,
  0x3e07d4023bfac9e7U, 0xbc0bc93e3d805570U, 0xbdf12af83d7e69f9U, 0xbd86824d3cab526dU,
  0x3e120a48be0c4f71U, 0xbdb88f103d43cc2cU, 0xbdef4748bd3c478eU, 0x3e10b07f3dc33192U,
  0xbe10922e3d0f0f4eU, 0xbd1d27da3de60a38U, 0x3d31af2fbdb6804aU, 0xbd73eb983df40c46U,
  0xbe10af813c9ee211U, 0x3dda5804bc0f2f61U, 0x3d157b563d6e7d6eU, 0xbd19e783be16431aU,
  0x3dfa0be33da81e07U, 0x3db6f4cf3d2b912bU, 0xbe100c9dbcbc2847U, 0xbdc62a2ebcf3af0aU,
  0x3da56dfb3ccc9406U, 0x3daeff6e3e309afeU, 0x3c36e59c3e05680cU, 0xbd6225cd3e1091d6U,
  0x3d3e22093d5ced21U, 0x3e12aa8d3d877981U, 0x3e1cfb793e21b9b5U, 0xbd797112bd017c68U,
  0x3d35cc943d9843deU, 0x3d952259bc0f1c8dU, 0x3d6c9272bd500e58U, 0x3d659b9dbe105768U,
  0xbdcb5f613e016cadU, 0x3de673863e39b7dcU, 0x3d948f203e253c2eU, 0x3dfa87e53da4f748U,
  0x3cee15a1bd0bbf2eU, 0xbd8639623e318a39U, 0xbe05e3babe013f3aU, 0xbe04b5e03a1982beU,
  0xbce4efc8be087da4U, 0xbd8d589fbdf0a943U, 0xbe1193dbbb2430a2U, 0x3d6f23833d5d7384U,
  0xbdc50688bd259b6bU, 0xbdd5fd5fbda49662U, 0xbd385389bda7e05dU, 0x3d1b48cfbd8bc11fU,
  0x3dee0f5dbe399d32U, 0x3e35bcd73e366362U, 0xbd4978e33e26332cU, 0x3dd255cabc64f94fU,
  0xbe01ff7fbe1e0ab1U, 0x3e01275f3e0d4743U, 0xbe1e7c9cbdedb68aU, 0xbda1e9943dd28086U,
  0xbce1c242bdb71047U, 0x3e20ee35bc222603U, 0xbdd02c45bd609e1fU, 0x3dc9b962bc47ee92U,
  0xbdf980883d507d7cU, 0x3b439c043e13d335U, 0xbdca672e3d6c1f20U, 0xbc3b065cbc1bb59dU,
  0x3daeecf4bd49ab8cU, 0xbc73114e3c86d815U, 0xbe11d034bc805a9bU, 0x3d6d51833df43891U,
  0x3de33da93c8c58ccU, 0xbc0dff143e1caf71U, 0x39e490443e364d00U, 0x3d9b8114bdff5c38U,
  0xbe138fcabc713a4bU, 0xbd37f4173e1e9381U, 0xbe27fcd8bdffece2U, 0xbd92d6703d21f4a7U,
  0x3dfdcbc63c97a2ddU, 0x3dfdd0f93e27d0bbU, 0x3e2d50b9bb072866U, 0xbd888ceb3d82e8e9U,
  0x3dff55d1bd990794U, 0x3db3d9193df21d78U, 0x3d73eaddbe04fe45U, 0xbe13b5b63d899b9cU,
  0xbb979135bddf6f26U, 0x3d4983da3d51038eU, 0x3e1041783d8c947dU, 0xbc84eb32bd5027f7U,
  0x3e22a09fbc929e45U, 0x3e2bff153dac4ad4U, 0x3e167a7d3ce135ccU, 0x3e16f81d3e25759eU,
  0x3c4370a13e1fc98fU, 0x3cbb77b2bc234d4bU, 0x3dfa8d9c3d90a84fU, 0xbd19aea03c89d580U,
  0x3dcb11ec3d6b6bf4U, 0xbcfc320dbd8266e0U, 0xbcf835f93cc31797U, 0x3e1d0a123addefa3U,
  0xbc8df8c53dd879f4U, 0xbd87d2e83e1a84f4U, 0xbdd50b9fbcc8284aU, 0x3da972f03dde85ddU,
  0x3e227445bd02b5d6U, 0x3dbd38dc3dc3f466U, 0xbd87781c3cfec88dU, 0x3e03cd5c3dd1b477U,
  0x3e2845ffbd3e90e6U, 0xbc885852bd8a0c54U, 0xbd52a9d33cebef40U, 0x3e11d30bbddd792fU,
  0x3e1ca71f3ca4f82dU, 0xbdefd0973dd8842fU, 0x3e272da7bb77dc87U, 0xbdcb8e973ce93284U,
  0x3cc46dc5bd899a61U, 0x3d86c2833d717540U, 0xbde7eedebc0462bdU, 0x3e2a5cb3bdd08b76U,
  0x3e08bf5cbc3632e8U, 0x3d750b0b3e1b5a1bU, 0xbddc1e01bdbac3c1U, 0x3e1df7c7bdb80c00U,
  0x3d46b795bda8dfd5U, 0x3e1bf0013e2d5bcfU, 0x3d994b363df51369U, 0x3e1fb0733dff836eU,
  0x3dea3c133e28d79fU, 0xbcd3048e3cc03ac2U, 0x3de0c9fabd6a8482U, 0x3d85dea23e2cdc07U,
  0xbdc6835abe1614cbU, 0x3e13b3eebdaa849dU, 0x3da2790fbe05e492U, 0x3d498745bdf3e137U,
  0x3de4f5fcbd288028U, 0xbdaa294e3dbddefdU, 0xbb81a1a03dc9c0c7U, 0xbde5861cbd964d8eU,
  0x3ce64f353dc41105U, 0x3da5e3613e304d59U, 0x3e05d8fd3e2f6913U, 0x3ade54f8bce90be7U,
  0x3da1832ebdba7c06U, 0x3da695573d175b28U, 0x3dc43092bda0f76bU, 0x3df87b97bc01e848U,
  0x3dfe0516bc9a7b62U, 0xbde01d203df9b5e4U, 0xbe20fea33db79e5fU, 0xbca2b3c93d858087U,
  0xbdb5463d3bb17a6dU, 0x3db7f1883d00b856U, 0xbdf4f699bdd5624cU, 0xbdbc4ba0bcdb1208U,
  0xbdfa0de53d7678c9U, 0x3dbef5893e29bb2bU, 0x3da7b7d43e252a73U, 0xbd9f9ca83dabdc50U,
  0x3da7a5dcbda90b06U, 0xbe10d5d3bdb6fe5eU, 0xbce7d7183e21052cU, 0x3d8f98c1bde10d26U,
  0xbdcfe7cd3e266ea8U, 0x3dd533cbbb0f3f44U, 0xbdb51a9abcb80c7eU, 0x3d8eedb7bdaf15dcU,
  0x3e13346fbddc7e8cU, 0xbd346d733d7407adU, 0x3de912d93df85375U, 0x3ccb90f3bd41f8a6U,
  0xbdc3f1173e11dae6U, 0xbc9c2873bcb9a675U, 0xbc2133ca3d9bea27U, 0x3dc266803d913b54U,
  0x3e3253333d5fcf8dU, 0xbd8b618b3e298dadU, 0x3dc70a453bb0bb45U, 0x3b89a475bdeb527dU,
  0xbd5fa3b93e2dbc53U, 0xbe040efdbe08ce65U, 0xbd41ba213e1e9cdaU, 0x3e2d4dea3c54fbddU,
  0xbde16a53bbbea0e8U, 0xbdc5ae393d65bb68U, 0xbd8ef6e23df93f79U, 0x3e0d140dbd85da18U,
  0x3cc62d0a3e1aeed2U, 0xbb404eb3bd555947U, 0x3da30170bd4f9f14U, 0x3d4e3eff3de5e043U,
  0xbdb5cf14bdb3b74bU, 0x3c83e590bde24eb6U, 0xbd945e8b3dc67606U, 0x3d8683603e14b05fU,
  0x3d6a2c983e14d5aeU, 0xbe1637e73dcde2a0U, 0xbda423ed3db78c15U, 0x3df7e7c03e13091cU,
  0x3e02a7333dafa60fU, 0x3dc6256b3d51ba57U, 0x3e0bd275bb68d712U, 0xbe14258bbd78c1a4U,
  0x3e316f94bbbbd5cdU, 0xbdd977e83e01d9efU, 0x3d811b3fbe2490d1U, 0xbe01b14b3dec92bdU,
  0x3e2836c13e3420a3U, 0x3d059298bdb2d114U, 0xbb48f31a3d7729ddU, 0x3dd5f79ebe09e8adU,
  0x3cb1aff9bdb63d70U, 0x3dc2efd73db77e0aU, 0x3d7659953dc94d60U, 0xbdcfd7943dc269e5U,
  0x3dcae7b73e0b8706U, 0x3b8e25263dbec32bU, 0x3de34d9e3d1f4e24U, 0x3d5b7e943c0584bfU,
  0xbd997a1f3d32dd93U, 0xbe03d1babd36f61fU, 0xbc2c5793be264fa9U, 0xbd9592ebbdf2c016U,
  0x3e13cb843c3631d1U, 0x3ca9d3133d86efd8U, 0x3c7d91b33e023fabU, 0xbe07fbd3be185906U,
  0x3cf6fa443e1df2b5U, 0x3cde990e3d4e8f8cU, 0xbd7c9941be0707dfU, 0x3df99304bd17a46aU,
  0x3dd1af38bd3b01c8U, 0x3df3374ebe1786a6U, 0x3def4e053dc33b63U, 0x3d8cfdf63de9ca40U,
  0x3c18f367bd9113b9U, 0x3e33635e3d50116eU, 0xbc5ed8a3be0b91d1U, 0xbca84bec3e174c95U,
  0x3d06b30dbd9f0057U, 0x3da43209bdc92c11U, 0x3e01cf863e144626U, 0xbd3c66e33e1f77f8U,
  0x3e08d9943b37aad2U, 0x3d82a1af3de57deaU, 0x3a9f399d3ca06500U, 0x3de904af3d44b31cU,
  0xbe0178743ca2a4e9U, 0x3caf41f93dcc34aaU, 0x3cf00fca3d27cce0U, 0xbd9c2c8abe09def1U,
  0x3c566d633c2d32cbU, 0x3e1fa0593cbb0558U, 0xbd63b337bd80775dU, 0x3d343bb53dd15b71U,
  0x3d6b902cbdf3421aU, 0x3cfe09c6bbca3363U, 0x3e11f3d5bdf122b3U, 0xbd2272673d901a89U,
  0xbc2688ebbdf3a077U, 0x3d6f1598bd41812bU, 0x3ccca51eb8b44118U, 0x3be7b9dcbdecb8efU,
  0x3e1252a9bc87693aU, 0xbe132447bd7ca96cU, 0x3d7b613c3db2e3f6U, 0x3d8ef9d83caec814U,
  0x3e20a06dbe199e6cU, 0x3b0d825c3d5a2cddU, 0x3d044fbc3e132190U, 0xbd295493bda987efU,
  0xbe006e56bc966335U, 0x3d963c823d40ba8aU, 0x3d54fe043c2a8c58U, 0xbde2dfd13e2c7d1bU,
  0xbd2f69bf3d344429U, 0x3d1c0a5d3db85553U, 0x3d9e60583dfccf1aU, 0x3d76fc03bc877b38U,
  0xbdc1643bbd7a918fU, 0x3c859ee0bd913a02U, 0xbe0744dfbde54272U, 0x3e047cf03d9b7a82U,
  0x3dd0e747bdf2953eU, 0x3df38a9d3c9c9065U, 0xbda8ea733db8f027U, 0xbcff90abbc04ffdbU,
  0xbdf6bfa93d98ec9cU, 0xbd2f56c4bde2ac38U, 0x3d915402bded6823U, 0xbbfb891a3d8b9e7aU,
  0x3dd30b263df641e9U, 0x3e0130f3bd901961U, 0xbc424404bdb4f2b9U, 0xbdafd7f1bdeb52e5U,
  0xbe2b29e8bd9e3d36U, 0x3e1e0ea8bcdb2e51U, 0x3d15c5ae3d113170U, 0x3dbf3bc03e2739e3U,
  0x3d47021fbd7bd9e7U, 0xb97b9a783e119cd3U, 0xbd40701abe1cd936U, 0x3cb7db41be00e22cU,
  0x3dd3f5dfbd08976eU, 0x3d265949bd8afbfcU, 0xbd8cc79f3ccdac4cU, 0x3d925a2ebd7c8686U,
  0xbd7589ee3d8fb0f8U, 0x3d93b6fcbd61e160U, 0x3d2faf673d01cfecU, 0xbe08d0d73c8f7ca6U,
  0xbe2200c73e01007bU, 0x3ddb5c9ebd5a7aadU, 0xbd5c127c3dbe9440U, 0x3e06b8253b37aa82U,
  0xbb392500391f4434U, 0xbe0c194b3c3a9559U, 0x3dbc9a0ebcf5fc06U, 0xbe176c703e12d084U,
  0xbdae80e5be065643U, 0x3db9537dbd1d8b32U, 0xbe2b67a13b3a2e44U, 0xbe0d4cde3e2bca5fU,
  0x3de19f313d28de2fU, 0x3d26ce58bd1bc5f4U, 0xbc61e2813cd6788aU, 0x3df4f15c3e212d90U,
  0x3dc8ca283dda4be5U, 0xbe09880abdeb997bU, 0x3d982fb83d18bd0aU, 0x3e080365bcf6e044U,
  0xbc0b483c3ca32e01U, 0x3deee27b3bd90cb7U, 0xbd471e2abdb2e0f1U, 0xbe2393bdbd4e0305U,
  0xbcf46028be1866f9U, 0x3dca30463de725b3U, 0xbdaf2042bd533b9bU, 0xbe1343353d72d83cU,
  0xbd247e9c3dddd7b4U, 0xbc838c1b3cc86171U, 0x3de8de23bcebededU, 0xbd62dbae3bd3e611U,
  0xbd4521c63df99fb9U, 0x3dc8fb7a3e0830e5U, 0xbe1921453e13f8bcU, 0xbdf7bbe0bdcbdc02U,
  0xbbdf4c60bdb9eb40U, 0x3e058ac2bd509bb0U, 0xbce7f7823dad1609U, 0x3de1666bbd9bcd57U,
  0x3dfbca623dc71cecU, 0x3dacbedb3d64e198U, 0xbddc64823d9de1ddU, 0xbc6814d2bde45e34U,
  0x3dd6945f3d074d44U, 0xbddcd0ca3e16f9e7U, 0xbddc1b243cc2c576U, 0xbd18ee9ebda5aabbU,
  0xbd28207a3db088f7U, 0x3e122616bbfe5d78U, 0x3d28b4fb3dcfa123U, 0xbddc2dd83e106195U,
  0x3dd3553cbe1306d6U, 0xbdbd4a513dc7dd57U, 0x3d8ca4003e0ded1fU, 0xbe0551e4bdfb7115U,
  0x3d7ee2043d9555e9U, 0x3cbf24ae3e1666f9U, 0xbc43a80a3db15b44U, 0x3e235d5f3de13b77U,
  0x3daa8b7fbdb9374bU, 0xbd6e782c3bd7444cU, 0xbd1c7c45bd0e902cU, 0x3e169cfe3d85b468U,
  0x3c8bc8f33d80563aU, 0xbc8f980abe00ee65U, 0xbddf9247bdd7b480U, 0xbd989272bcaf5f68U,
  0x3ded66acbcaf716dU, 0xbe2ddcfcbe047f6eU, 0xbd6fed96bda2f1f1U, 0xbbebb9713d342d0eU,
  0x3e0bdc34bdc52887U, 0x3db05a7ebacbb4f4U, 0xbd5be02ebdfc8397U, 0x3dce6ac5bd0b1aa2U,
  0xbddb40703df94f20U, 0x3db9d05bbd6107e1U, 0xbdce3fda3d04cc31U, 0xbdfa58a4bbfb304eU,
  0xbdb4bb5d3db0d9fcU, 0xbdfeb71b3d4c0884U, 0xbc8b72f13dc91adfU, 0x3da45e383d89d84fU,
  0xbe07bb7d3e29cec5U, 0xbdf0e38ebd6a56c9U, 0xbca0cba83ce02d9dU, 0xbc10c28abdcabb12U,
  0x3d64145abe160a37U, 0xbd37eede3d2b8b2dU, 0xbcbcaf743d8c4a9bU, 0x3dde0c7c3e0e9d29U,
  0x3e21c5653dcce143U, 0xbdf993ba3cdd97e9U, 0xbdc6695d3a5d47b7U, 0xbd897f273e13839eU,
  0xbd08b1bc3d8f2196U, 0xbd867769bd9c7891U, 0x3dec4b9b3c6a39e6U, 0xbda11dc3bcc444bfU,
  0xbe06ec733dfa419fU, 0xbde628a03df42354U, 0x3c503c273d58963aU, 0xbe22e0db3e0e0814U,
  0x3bb0b2d5bd1eef0bU, 0xbda5d8cc3d088de2U, 0x3cf5474a3e2006a9U, 0x3db3dcd1bda9679eU,
  0xbde9b7dcbd73bdedU, 0x3d9a63993c6559fcU, 0x3df34ead3ce091b8U, 0x3e18fb593e32dba2U,
  0xbddeb92fbad7759dU, 0xbdd7dd71bdd0c98dU, 0x3e04b26c3e034395U, 0x3dba1410bd35edccU,
  0x3d21621abdd076c5U, 0xbd8070883d0ccde3U, 0x3e37542abd0d6f9aU, 0xbdde194cbd4a23ceU,
  0xbd69db963da756bfU, 0x3c5dd889bdee607eU, 0x3e043ce03d863c0aU, 0xbd8cd2eebd4374a6U,
  0x3c9acf293c625a67U, 0x3bda70f53cb7139eU, 0x3caf0b883ca460a9U, 0x3c0204a13ca01821U,
  0x3c6326233c9f3009U, 0x3b856977bc1af25cU, 0x3ac2b2bb3ca92244U, 0x3b6ae38c3c87f779U,
  0x3c73b6aa3c7f874bU, 0x3c09f8fc3bf106f2U, 0x3cbe4d6d3c9c46f6U, 0x3cd410363ccfd0e2U,
  0x3ce01bdb3caaa318U, 0x3c05ef3f3c925c15U, 0x3c2bdef63bb886f6U, 0x3c144f9cbb1c68f4U,
  0x3e07aba5bd1e0a67U, 0x3df08e48bca1470dU, 0xbd0b34febd9a1abaU, 0xbc2169f5bbb66dabU,
  0x3d9ee6b73dcad976U, 0xbdad00f0bd9fcc03U, 0x3dfa11323d995412U, 0xbddcefcebdb9d074U,
  0x3df366a7bcecf73dU, 0x3cd08fdabce6a827U, 0x3dfce1da3debd160U, 0x3d169cd53e1f5d64U,
  0x3ba53bc53d73ffbaU, 0x3dc67c373e1418a4U, 0xbdc3aaad3da8c928U, 0xbe0d9e55bd9dc223U,
  0x3dca1167bb8e8f64U, 0x3ddae924bdb504edU, 0x3e22ed243ddbc3e0U, 0xbc2d041e3df0cd28U,
  0x3da63b153d4b0218U, 0x3d3d8e8abd11ad33U, 0xbd81f1433e1e1961U, 0x3d807bee3dffdfbaU,
  0x3d431ee0bdafd9feU, 0x3d6fc80cbcfd4b5eU, 0x3e0ea7733e0d6c95U, 0xbcd8740cbde4eee2U,
  0xbda997393df08d82U, 0xbd93f035bd8fc363U, 0xbc247f6c3dcf2962U, 0xbd25405b3d6e7e04U,
  0xbd4b36b3bdf1a841U, 0x3db3276b3d5135eeU, 0x3d71f989bbfcfa20U, 0x3dcffe5f3d985db7U,
  0x3e03c8c83d3dd4d1U, 0xbdb4d6cebc271b5aU, 0x3e0484953e0889dcU, 0xbce2602abc264580U,
  0x3e0ee27dbdb878f7U, 0x3d9019903d2acfa4U, 0xbda160c1bdaa7940U, 0xbddf8c0f3dd993f4U,
  0x3bb6cb3d3c594764U, 0x3e2407263dbde9afU, 0xbda1157abc72ee1bU, 0x3d100691bd6d43faU,
  0x3ddef56ebd29be34U, 0xbd65207abdeb31afU, 0xbd7edfb0bdd5f099U, 0xbcb26e6cbd629d6dU,
  0x3d69f52c3cea1698U, 0x3d05ae3abad76b39U, 0xbdc27e54bcdcd96cU, 0x3e02ca8abd490245U,
  0x3c90a7863d89428dU, 0x3dbfb51d3e05e931U, 0x3b3405b2bd0112a4U, 0xbd96dd803defd455U,
  0xbdafa9103e09348fU, 0x3e13d01abdbdc058U, 0xbcaa6801bd62963fU, 0xbcbb0e37bde72d3aU,
  0x3b8f6d5cbdff8c18U, 0x3d9b77e4bdda6487U, 0x3dadb3643da77ad9U, 0xbc84de9a3c7488dfU,
  0xbb8e4746bd8e7782U, 0x3db099e53e1ff379U, 0xbdfa0f583db72690U, 0x3d42f97bbd02ba1fU,
  0xbd9b501dbdc7c1f2U, 0x3c63dfeb3d474bcbU, 0x3dff28fdbdcbfcceU, 0x3d005cd0bd6c6797U,
  0xbe0afbef3da28979U, 0xbd70f8a13e0ad601U, 0x3d84cfda3e294486U, 0x3d6a8a313d21225bU,
  0x3db385863dbf08e8U, 0x3c04e35ebd8a8d38U, 0x3d91c94b3dca750bU, 0x3da7426ebc509d58U,
  0xbd99584b3d204310U, 0x3cfd77fb3d87cc4dU, 0x3d9663653d72eff5U, 0x3e00fe133dd054c7U,
  0xbde82238bda07800U, 0x3cc317493c05ea9eU, 0x3b1937a9bd41b70aU, 0x3df59976bdb33fcdU,
  0x3a41abdc3c029605U, 0xbd4ac1d6bd821512U, 0x3d51227a3d96bdcfU, 0xbdaedf153d7c293cU,
  0x3e2065a2bdec8551U, 0x3de10b85bca6c023U, 0x3da16c2ebd027dbfU, 0x3dd7e93e3d245c6aU,
  0x3da04d45bded4a65U, 0xbcae86efbc9735e8U, 0xbb2bcab4bddba095U, 0x3cfd45ddbc4595e9U,
  0xbd436350bd55d9faU, 0xbdb891a9bb790bd5U, 0x3db4b901bd68647eU, 0x3daf8a813e0e5fc2U,
  0xbba40f58bd220e82U, 0xbe0a8b2c3d4628b1U, 0x3b7a87a9bdd785eaU, 0xbdae3cb6bdd9b618U,
  0x3dbbfa3fbd211185U, 0xbd4709ab3d2ef638U, 0x3c87aaf4bce67525U, 0x3d9e40763ce88e3eU,
  0xbdbf4903bdb39c1aU, 0xbdfd1dd3bdca6e4aU, 0x3cc357913c8d8faaU, 0xbda9d9babde1ba17U,
  0xbdfe8ede3e05f4f4U, 0x3d48747bbe0ff3deU, 0xbdeae5ae3ca2c960U, 0xbc3b4d6bbd978f06U,
  0xbd1cf570bd672798U, 0xbdcede073c2f17a6U, 0x3ded9bcbbc9d4de2U, 0xbde8300bbd809312U,
  0x3dd752733d7de703U, 0xbc8e12423dc9840aU, 0x3da90a39be08fd0aU, 0xbd93bb623d55f6daU,
  0x3e1b1f763df3265eU, 0x3e01af233d1933d9U, 0x3cbc16d23d6f89b3U, 0x3e0283633d6906c4U,
  0xbdc61fdfbdb0ebdbU, 0xbe010e773bf28cafU, 0x3cd7fe16bc80f270U, 0x3cf85d6a3bdc49e8U,
  0xbd7ba392bd86b3cdU, 0xbddcbb533def97baU, 0x3dc19801bde8e0acU, 0xbc526a93bddfe285U,
  0xbde31e7e3dbad197U, 0x3be356febcabf534U, 0xbd52bcf83e038cb7U, 0xbde8bde7bd667a92U,
  0x3d394aa53a8c5f88U, 0x3da2a14b3bcc3b56U, 0x3ddeda443dde708dU, 0x3d21d897bdaba3afU,
  0x3dde8b13bd83b5f1U, 0xbdd41cc23dabd5b7U, 0x3cd1deae3ce18ac0U, 0xbd9d5232bb91bfd2U,
  0xbd9e28403dd1cd70U, 0xbba7a38dbdb69835U, 0x3e03a0193e16275aU, 0x3c6f80b2bdb78dd5U,
  0x3d2ef8a1bd956cb4U, 0xbc2333923da02bbfU, 0x3d8db2ae3e0043d0U, 0x3d8fa649bda649fbU,
  0xbdcf36333e007af2U, 0xbd9ba53b3dec3604U, 0x3dc390243e29924eU, 0x3b80ecfd3d8d147aU,
  0x3d9a0cd83d728934U, 0xbd6b393fbb1f753eU, 0x3daa0433bd378bc7U, 0xbda364063d4863edU,
  0xbd7ce548bcf2001fU, 0x3e02e1043d8c7a0eU, 0xbddbb8023d9811e6U, 0xbdd2643c3dde18d0U,
  0xbda98d3fbdbbd8dbU, 0xbdef8b6c3d087fbfU, 0xbc964c82bdb097beU, 0x3d9efb5a3e165051U,
  0x3de819643ccf2c60U, 0x3d178022be010109U, 0xbdc053c53d81f165U, 0xbbed35193cbd89cbU,
  0x3dcdd4e1bd03c0ffU, 0x3d30e528bc3dcdccU, 0xbdc7efbfbc0fb4faU, 0xbdf59cdf3cf02189U,
  0xbdb607883db4ad78U, 0xbdfe626a3d880a79U, 0x3dee8fa7bde0e02dU, 0xbd76149bbcc2da2aU,
  0x3cb714febdace1c5U, 0x3bc94fa83d5e01f6U, 0xbe0bf0563ad20394U, 0xbdd9ad38bdebda4dU,
  0x3d3787993dd39ecaU, 0xbe00b1593d50ffe2U, 0x3dd367793d68f9d4U, 0x3d1911b0be039803U,
  0xbd84fc2b3cfb3bfcU, 0xbdc2bf803c88475cU, 0x3d5ad632bcf0d6d5U, 0xbd612bdebdad68b9U,
  0x3e14842cbc62c4e8U, 0xbcf8faac3d49eb32U, 0x3da247ff3cd50b9fU, 0x3d305b13bdb23c17U,
  0xbdbd8fb73d3114a5U, 0x3d91c3623d8e8457U, 0x3d8dbe8d3d11a414U, 0x3b61fbb5bd93100fU,
  0xbe18a2fa3df8d4c1U, 0x3dd1c72cbcda354cU, 0x3caa5f553c0529e3U, 0x3d8918913ca4c926U,
  0x3c77194dbcefe8fbU, 0xbdcf6802bdd28111U, 0x3b376d66bd891cfcU, 0x3cf9ad303dd88262U,
  0x3dc31256bd568fceU, 0xbd9b0c59bd390b34U, 0xbc83afab3de6e56bU, 0xbd386f70bd9dbd98U,
  0xbdbfd4b73d04272aU, 0x3d9c195c3d3d5049U, 0x3c987bb3bda2fd73U, 0xbdeabb90bde814bbU,
  0x3da21fc5bd9ddcd9U, 0x3d5e7ad23dd7ec1eU, 0x3c7aa4d2bd15e437U, 0x3d773e7cbe207c87U,
  0x3d98d58a3dd8497fU, 0xbde86e483cc5bcaeU, 0x3d43030bbd04a344U, 0x3d3cccd93c2b8b76U,
  0x3e196251bcf18303U, 0xbdf51ab73e228b1bU, 0x3dc2b3633c9803f6U, 0xbd1f4e32bd6a1dd2U,
  0xbd1c92b43d871561U, 0x3d46cbf4ba898b50U, 0x3e0e43f13da3ee5aU, 0xbd967d85bcde2e82U,
  0x3db8fcde3e094437U, 0xbd7812733d9b2ae8U, 0x3da87eeb3cea3c1fU, 0xbd923c5a3da85c7eU,
  0xbd72934a3d911a01U, 0x3dbde7b33df0f432U, 0xbd1772ad3dae1a29U, 0xbda9147e3d5b7f79U,
  0xbd7ca3013dc8a513U, 0x3df90169bd3c6dffU, 0xbdfcd73b3ccb9405U, 0xbdf9cd00bd9a025cU,
  0x3e05752f3e043f14U, 0x3dfa272a3ddf4640U, 0xbd2999ee3c45a7f5U, 0xbd949b093de4a8d9U,
  0xbe0d4329bd9aa4c0U, 0xbd8f29823d32ff6aU, 0x3d265d1ebd6058d3U, 0xbdc3cd7b3dbe1419U,
  0xbde200f9bca276f1U, 0xbe1911abbe1f98e8U, 0x3e01660b3d926df4U, 0xbdcfea65be094e51U,
  0x3db781b73da9fda0U, 0xbd815698bd933e3bU, 0xbc0b6af73c418d50U, 0xbd93d718bdf1a7bfU,
  0xbaa273423dcae889U, 0xbe013f5b3dd5f466U, 0xbdfb02ecbb7892aaU, 0xbc68e44fbe0e2432U,
  0xbe1dc73d3d9a794fU, 0x3d99196f3dbede04U, 0xbdd1607f3d7addf7U, 0xbd5d7cd6bc302c62U,
  0xbe008bfabdea7f7eU, 0xbe172d6c3d4de695U, 0xbdb107ce3e189f9cU, 0x3c6b59cf3c3729b7U,
  0xbd8ae5edbdcad96cU, 0x3ddd78f4bc56c113U, 0x3d70d9cebd7155b4U, 0x3d8391bb3d835dd2U,
  0x3e1264ffbc1fd074U, 0x3db0eac6bdaf7d96U, 0x3dcf1fe43c80feb2U, 0xbdb30facbdca5255U,
  0x3d27c8d1bda49aabU, 0xbca4c4cb3e276ce2U, 0x3db496b73b091850U, 0xbdde7fa23d727a60U,
  0xbd903208bd2e351dU, 0xbcff26183b1b30bdU, 0x3da43ebb3c560a1aU, 0xbdeeb3ff3dc902a3U,
  0x3e12e998bd9311f9U, 0x3b842b8dbdbbbabaU, 0x3d3b398a3dcef460U, 0xbc16a66f3db48f8eU,
  0x3e1a3c883d84e009U, 0x3dff65353c850449U, 0xbde4cdadbdca8539U, 0x3e1a4bf23cd63ee2U,
  0xbd3cc3adbcf55703U, 0xbc073365bc8b2973U, 0x3d0fdf4abdbe76c4U, 0xbd761e283dff3fcdU,
  0x3d7e258f3dc9ab19U, 0x3d7bd84ebdd4a923U, 0xbbe2c653bd94e27aU, 0x3d26f9ce3c270854U,
  0xbc7fc3f1bc66e413U, 0xbd8b3a623e101081U, 0x3d9a74563d55fb82U, 0xbe1abf013dcb1405U,
  0xbd755ebd3b401889U, 0xbacf1e86bde9371dU, 0x3dd2f52fbd8a5087U, 0xbe11a5b6bd116b23U,
  0x3e1ea9ef3d905040U, 0x3d87987cbb84a47cU, 0xbdc679f7bdedd80bU, 0x3d787b1a3d95c388U,
  0xbdbdb013bd9770ffU, 0xbdc61c2b3e1c7599U, 0xbe036915bdbe7e2aU, 0xbd5a35823cdd4606U,
  0x3d47744d3d1bd10fU, 0x3dbf0b9b3dfb9a0dU, 0xbdb0bde83dd80c6aU, 0xbdbafb0b3dd183e0U,
  0x3cea23babdb7703dU, 0x3e0960cf3d935dbcU, 0x3cac2df33d568308U, 0xbd4db9f43df9ab3dU,
  0x3c98bf9abdcac2dbU, 0xbd808a19bc7e73d3U, 0x3ae98b96bdba4201U, 0x3dffceedbd76fcb8U,
  0xbd81fc65bdffb34cU, 0x3e0107643d1e0226U, 0xbc2bed0ebccd3079U, 0x3db3fa43bde9059bU,
  0xbe0464ff3e21a841U, 0x3d1cdb63bdaa4bafU, 0xbd6bd9ccbde3a643U, 0x3d024f4bbd42d12dU,
  0x3da101bebcd8bf5aU, 0xbce764f53e0220f9U, 0x3d08294f3d90fd02U, 0x3e04a51f3d2d07f1U,
  0xbdd72f473cf6225cU, 0x3e0337bbbdbde389U, 0x3d0d8a70bd1d2d47U, 0x3c921aa13c87cbdcU,
  0xbdcb64403cea626fU, 0x3b8a0bdabd38c450U, 0xbd5f1854bcd6dc55U, 0xbd8c54dabd30ec05U,
  0xbd2780b3bdfeaa79U, 0xbd311766bdcf89bfU, 0xbd94220a3d2b96ecU, 0xbde444993de0e509U,
  0xbe007825bd96f4d2U, 0xbdddb5483b302b40U, 0x3d74895abdbbc949U, 0x3b717d693a8bf353U,
  0x3da05649bb974d40U, 0xbe021a923da147a8U, 0x3e0258dabd96a31bU, 0xbd97a0eb3dcd88b9U,
  0xbd77bb58bdbb29bdU, 0xbd938630bd7ebf8eU, 0x3d843d2c39973315U, 0x3df23cb13df26bc4U,
  0x3ddf2077bdc97161U, 0xbe110fa3bd32ee56U, 0x3d2f651ebce31048U, 0x3d569180bdb5491cU,
  0xbd294215bdf15987U, 0x3dab3f6abd9f9a7aU, 0x3d6b78c7bdb4b9efU, 0xbdf0d73c3de93041U,
  0xbe009f623d09e865U, 0xbba8a517be167c0bU, 0x3e0acc91bdb39433U, 0xbdb8b218bcecd47aU,
  0xbdca26a7bdf0f865U, 0x3e1d96f7bd57fef6U, 0xbb7e2c923de30ac9U, 0x3d3fa2e6bd192216U,
  0x3ce0fdbdbdec2becU, 0x3c0cedc43dbe17b2U, 0xbdac32d63cf97bd0U, 0x3e1bc09f3d3c92ddU,
  0xba4542a1bd9c640dU, 0x3d8c95d5bc741350U, 0x3d8675f33bbff3caU, 0xbd86f2c83ce1d432U,
  0xbca278b7bc329f8aU, 0x3e0e4fc73df2bf28U, 0x3d4c80803e16cdb9U, 0x3d2b0d10bd8f6adaU,
  0xbd7b7f88be032568U, 0x3d55a07fbc869018U, 0xbb9451f8bc8c477dU, 0xbde8e7fb3de1523cU,
  0xbe2896cfbdd245a4U, 0x3d31e30f3ced60daU, 0x3c5568bdbb633b7cU, 0xbd426b293cefd8e8U,
  0xbdc702a93d27f569U, 0x3d31c50a3db2d446U, 0xbcbd1f85bde7f7b7U, 0x3e11f2263ddf6575U,
  0xbd9f3dfa3df33af1U, 0xbdcc05783cec1325U, 0xbdd12c59bddbce39U, 0xbdced9e23a5af89aU,
  0xbe11b9ee3dcd9933U, 0xbdd1a48bbd94253bU, 0xbc581b7fbdd0b2f2U, 0x3bd8ca2dbcd77363U,
  0x3cddff8e3d495605U, 0xbba092db3e0f504cU, 0x3db9ee00bcc7635dU, 0xbdd6e21c3dd8712dU,
  0xbdee4fe53d3f5e2aU, 0x3df3f3de3c98a69bU, 0x3dba83743cc19d18U, 0xbdb4b5dcbd269271U,
  0xbbc32d783a0aa041U, 0x3dc7d4d3bcf2c6cdU, 0x3dfa28a7bdc6e54aU, 0x3df356bfbd3251fbU,
  0x3e0cb1e0bd63a24cU, 0xbdcd2a25bdeb5481U, 0x3da1647fbe0dba95U, 0xbe0809e03db9d0cbU,
  0xbdb488c5bd53d8b3U, 0xbde2edc3bdca0cd5U, 0x3d793fcb3e14089fU, 0xbdbdd8cfbe04a9cfU,
  0xbd9ce3743d5decd9U, 0xbdb88bb63e043020U, 0x3e0aebaabd8d6431U, 0x3e0fa5b53de8e07bU,
  0x3d93c7c3bdfbee64U, 0xbdcc651b3cc2eecdU, 0x3d0ff90d3dcc6b03U, 0x3d42583bbdb848a3U,
  0x3e1014de3e0fccfbU, 0xbdf30043bd3c080cU, 0x3d58bb50bdfd39e4U, 0x3ba7f2a0bde106b1U,
  0xbda645c63d9e6608U, 0x3e061ec63e0d130eU, 0xbd04e9743d96657eU, 0xbcc83c9c3d77fbb4U,
  0x3c14d03abc422302U, 0x3e0449fe3e0f54cbU, 0x3c3befcfbda7b89eU, 0x3dd3d7a63ce9e2b4U,
  0x3df707d13db1e25fU, 0x3d95546c3e02f19fU, 0x3e100abe3c30ebb7U, 0xbe124f06bd77a8ebU,
  0xbd95f83b3dc52abfU, 0x3d8657bc3b4e24aaU, 0x3e0a1d113e0c69b0U, 0xbbcf2d3a3e10fb8fU,
  0x3ded1b113d19817fU, 0xbe0171f03c73479aU, 0xbc063453bc07596bU, 0x3ce98afa3dc1259cU,
  0xbcf951203d47e539U, 0xbc909bb13e232dfeU, 0x3e01f2f9bddcaec6U, 0x3dd5fe693d936df1U,
  0xbcfe23dabcda5c30U, 0x3e0acf69bc5922daU, 0xbd87adae3e0f4e36U, 0xbdb478803e0c3983U,
  0x3d4c80cf3df3b1c1U, 0xbd4b5fdc3de2fcd6U, 0x3c2366833d78cb06U, 0x3e262f523df53f96U,
  0x3d85b28cbcd9404fU, 0x3db49bc33e0748d4U, 0x3df4b5cdbdbb2483U, 0x3d47df18bbeeb406U,
  0x3c928a853df8bf69U, 0xbdb4a6273daf14a4U, 0xbe01f1893e204a46U, 0x3d1cd1583e04231eU,
  0x3d8d71f03dd7c9b5U, 0x3d221093bd652850U, 0xbb95f0b9bcf9c6b3U, 0x3d9d3224bbc0a35eU,
  0xbd63d6543dc07c74U, 0xbcff8680bb8aa456U, 0x3e1035d9bc926887U, 0x3dc6065c3df67ea5U,
  0xbb5da31bbdaba9a6U, 0xbdd966b7bd933d45U, 0xbd61466f3dfbe409U, 0xbdbf62a03e252955U,
  0x3cc043113db7c2f0U, 0xbbc6954dbd7f1372U, 0x3e0bf96c3e110380U, 0xbd96d2c0bdafc860U,
  0xbc201b70be0e0adfU, 0xbd02b4bcbd134bdaU, 0x3df7c721bd57a4b5U, 0xbd2954e53df87cfdU,
  0xbceeca36bd8a7ca7U, 0xbe0850283d8af54cU, 0xbd701af53deb00d6U, 0x3ce9818b3e141e75U,
  0xbc4321c83dea0e50U, 0xbd1bc3b93d98fb9aU, 0xba9f19683d1483b0U, 0x3dcb187fbdadc3a2U,
  0x3d1a09fc3d786a85U, 0xbdcb1333bdf66de6U, 0x3d4fea873e05bf6cU, 0xbd18774ebe233938U,
  0xbc5a7e153de2dc25U, 0xbe022e6c3d8f8562U, 0x3d1c0ae1bd21918dU, 0x3d22cb09bdbdecfcU,
  0x3c9d1f14bc95e87dU, 0x3e0889f33dd7b1edU, 0xbc7e8e253dfe80e5U, 0xbd567bc53dcaa1c2U,
  0x3dc5c5b33d8dd876U, 0x3da26cf0bd1f9ae6U, 0x3d48f77bbe0f4b47U, 0x3da8aaa73da1e093U,
  0x3c1f300c3db7ebbaU, 0xbe0c9c7abc2e9277U, 0x3d4e0d703e0f3a6aU, 0x3ca53d3cbdc6f592U,
  0xbe0b4596be0582d6U, 0x3b36bc43bddf5f40U, 0x3c5439e9bd49c616U, 0x3e1d612c3de7829dU,
  0x3e15627cbdb5aa96U, 0x3d86ffbfbd4cc6e7U, 0xbd155b453e0e396bU, 0x3dfecec3bdb4e8c7U,
  0x3d973874bdf3a559U, 0xbd05e408bdd2fc07U, 0xbde5dc653d0540bbU, 0x3d289b4ebcad0146U,
  0x3d91566c3df44b8aU, 0xbd03a4a13de9707dU, 0xbcc42d603e08e4fbU, 0x3dbae5babd6076eaU,
  0x3daeed9c3d70cf3dU, 0xbd87ea023deeb29dU, 0xbd9522873e07d966U, 0xbd100b79bdfa16bdU,
  0x3daf44743d72c3f5U, 0xbd4303eabdcc312eU, 0x3e0a1826bd856a64U, 0xbd980d3abde91ac0U,
  0x3d03a7553e0c3239U, 0x3d95e2cf3cf86464U, 0x3de2226d3e0246ffU, 0xbd0214e93d9d8d62U,
  0x3dd014df3c3f8287U, 0xbd71b1363d5f3649U, 0x3e034f70be063751U, 0x3db954563de51ed4U,
  0xbbd800a63e125439U, 0xbbeb679cbc8acfffU, 0x3cbae5063d2be123U, 0xbdb5ddc83e0fdbbbU,
  0x3ded396cbdde3775U, 0xbd88100e3e22bd89U, 0x3d2479b3bd36bd0eU, 0xbb93a02e3d5f9474U,
  0x3d90aeeabb9df067U, 0x3d8c0606bddbd1d0U, 0x3dcc9bb13da26e77U, 0xbddcacbbbbcbf236U,
  0xbe12f313bcd1a907U, 0xbdf235dabda118f7U, 0x3e0fa0a5bdcfb382U, 0x3de39a61bdf5a0d8U,
  0xbcf826f4bdcba142U, 0x3ddd65fabd8011b3U, 0xbe018a933cf0d8fcU, 0x3dfba0b93c730982U,
  0xbdcc40853e11725cU, 0xbc93bae5bd96726bU, 0xbda1777f3deabe84U, 0x3b925f0cbdb1632fU,
  0x3de4ba5c3dda6b6fU, 0x3d75a5b7bdad6e20U, 0x3d87ebcebd83fb12U, 0x3d82d10ebdc2cc69U,
  0x3d7415373e154c41U, 0x3dcc6ff03db883e4U, 0x3e2016d0bde4b254U, 0x3de87e7f3d89a5e8U,
  0xbdc07791bd4f2ff3U, 0x3e0365b5bd058696U, 0x3dc52a703db0201aU, 0x3cfa14bcbbe377ccU,
  0x3daa83cebdc7bc82U, 0xbbc23592bd3024dbU, 0xbd048804bc1d0ee8U, 0xbcd407de39cd307cU,
  0x3e233f31bdcd4226U, 0x3df5c5083df1292fU, 0xbc9d9f583c7e3bd1U, 0xbdd318b8bd688e31U,
  0xbc5619a13dfb3db9U, 0x3d200b4dbd523cdcU, 0x3c9a5c2bbdea6fcdU, 0xbd2b737b3d94e539U,
  0x3d6414e2bc4632b8U, 0x3d6424a4bda1ddb5U, 0xbd29e0af3dbe94b4U, 0x3e168216bdf39f83U,
  0xbde253cd3d247a5bU, 0x3d3264643dabccc8U, 0x3e017f963d7a9553U, 0x3d7cf180be1550e6U,
  0xbd55f51bbd0b0e8bU, 0x3dacd0f9bded1322U, 0x3c12707b3d8ebb95U, 0xbcf57bf93c6b35d7U,
  0xbdc0dc7c3e06d8ccU, 0xbc3d9cc8bda9e7abU, 0x3d425458bd4b279aU, 0x3c909ec53e1d0ee4U,
  0x3d90e553bdf256d2U, 0x3e108859bd960144U, 0xbbf0eb8f3dcc98feU, 0x3c97095bbc5625cbU,
  0xbac9293cbd6dac1cU, 0xbd66f7583d08b49eU, 0x3d836e813c04436eU, 0x3e0730803d618558U,
  0x3da14534be09fba0U, 0xbc9add733d4a922dU, 0xbddbedee3ba39950U, 0xbde4f916bbf43fadU,
  0x3db1ee273e0c9f66U, 0xbdb6040c3d024612U, 0xbd6f3c493d92dae5U, 0xbd0deca0bda10f87U,
  0xbde93fa13e106f3eU, 0xbccddd403e0714aaU, 0x3d89779d3df9e449U, 0x3dfb4ede3d54c5e7U,
  0xbdf0e20e3c6e0ab7U, 0x3d5f20213e072035U, 0x3ca9b73b3c9ec0bdU, 0xbe074ec8bdca857eU,
  0x3e02274f3dada1c4U, 0x3d3a3e363c6bc53cU, 0x3d5fffe63d61e174U, 0x3ce8bd4fbdce3266U,
  0xbdd8c5103d8086efU, 0x3dbed11fbd11b5c0U, 0xbdce70d13cc33d12U, 0x3cebb274bcea2734U,
  0x3e1bdf37ba92f5a5U, 0xbdf1a25b3d280466U, 0x3cce56e7bd889dd4U, 0xbe10830bbdb3e677U,
  0xbd834ee43dcacecdU, 0x3a9d486a3df472afU, 0xbd2c2612be10fbc3U, 0x3e085dcfbda60029U,
  0xbd7b24633dbfb7e9U, 0x3da18906bb6d8e1dU, 0x3ce4352ebd360220U, 0xba17f7c2bd693cfdU,
  0xbddb6f0b3cb3fe38U, 0x3dc40b61bd953386U, 0x3dd2ad013bf3bec3U, 0xbd828345bcba440bU,
  0xbd75c5ffbc187837U, 0x3dac4f393dd2debeU, 0x3df9b64b3d6d2dbaU, 0xbe022041bd5d9aa3U,
  0x3dbfd84a3c85a5b5U, 0x3e0371273dfe7098U, 0xbda29538bcd91b74U, 0xbd6ca0b13c246817U,
  0x3d9612263d5873c4U, 0xbcf3b7ad3dd5fae0U, 0x3deef1803d49527dU, 0x3d7aadd3bde9d3d8U,
  0x3dcd2019bd5646f7U, 0xbdc5ed20bdbc69a3U, 0xbcc05f4abd89309eU, 0xbd49b6ddbe075ed8U,
  0x3d1bd5e63bac7f56U, 0xbdbaccef3dc6811cU, 0xbdc6f512bdd4748eU, 0x3c797a843e124a87U,
  0x3da3bd94bc3181bbU, 0xbc66e1a8bdca16f0U, 0x3b9772bbbe2a8632U, 0xbd6a7a803dcfc4ddU,
  0x3e11ae0abdf441e8U, 0xbe1156ba3dc8346fU, 0x3d8cd1773c936b84U, 0x3ddcc4b5bd01da37U,
  0xbc02cc91bd290d92U, 0x3d9cb31e3c780684U, 0xbd39a32b3d83bfa6U, 0xbde21b55bd65234dU,
  0x3c39cbf43d406ebeU, 0x3e245fb03cc20866U, 0xbdc3b41a3e09ee25U, 0x3d1b852f3df2670cU,
  0xbdbd252a3dbabfddU, 0x3af06f653d0d39b4U, 0xbe07dbdebb6bc870U, 0x3d8e0118bd0888a7U,
  0x3df27d243c8c2147U, 0xbd0aa0ec3dd0307cU, 0x3d7782b6bdaf988bU, 0x3d4e9d213dca1c77U,
  0x3c518dac3e1957a5U, 0x3e1441c73dddb34eU, 0x3c516203bd9a6ec5U, 0x3da6760d3c485ab8U,
  0xbd56dde8bcb5eac4U, 0xbd8431a0bda2ba81U, 0xbe217f5fbdd0dfabU, 0xbcd8f13bbd1268caU,
  0x3bab8fb83cccd1d9U, 0xbd2029533d302e78U, 0x3d395c2dbcafb66eU, 0x3da6738dbe117286U,
  0x3e01e75cbc56809aU, 0x3cd45f9f3e117c3fU, 0xbce69db33d26b441U, 0x3ceae4873de4c1bfU,
  0x3db7e415bb3bae83U, 0x3e1baf20bd82eabaU, 0x3db177cdbc0c37d1U, 0x3d64e11ebd86ed57U,
  0x3ab2bff63e182024U, 0x3dee5a523dd881aeU, 0xbda7de2f3e0cd71dU, 0x3e1db7dabdc78882U,
  0x39939a14be079c49U, 0xbb9bda3f3ce7d282U, 0xbcca82033cfa417aU, 0xbdd0ed18bdb1c7f9U,
  0x3dd3d88cbdb55c5cU, 0xbd0ad6803e069e4fU, 0x3d5bfbf63db2e08eU, 0x3cc40b62bdc41ca6U,
  0xbd972baf3d075937U, 0x3d3c98093d90f778U, 0x3d953e303c85e115U, 0xbcbbbb003c23fd52U,
  0xbe0cf4523dfa00dfU, 0x3dee8952bcca62c2U, 0xbe054b95bd87c668U, 0x3d17eb6c3d49f1ffU,
  0x3cc22a333d7f98b0U, 0xbc3e7df43d412144U, 0xbdb7aa62be0ef3c7U, 0xbe137ec63dfdbbdfU,
  0xbdf23ceebd63a798U, 0x3d5b6f6dbd8963acU, 0xbe17345d3d2ddf69U, 0xbe15833d3dbc3864U,
  0x3df16d9b3d75742aU, 0xbdbf8fb7bd360ae3U, 0xbe093bd03dcf7a58U, 0xbdddaae73d4c421eU,
  0xbd00b7c8bd51a8caU, 0xbd008048bd83757aU, 0xbdeb31af3ce3281dU, 0xbdb9d0e6bcea958cU,
  0xbdf280a93d9c21b0U, 0x3d89defcbddb896bU, 0xbdb956ad3d27abeaU, 0xbd3551d4bd2c2e49U,
  0xbdb886dc3c8cee5fU, 0xbde3d3b9bd4eb05fU, 0x3c07a9753d422291U, 0x3cdd844fbe06f387U,
  0x3dd54de13dda908eU, 0xbd19c7cbbe005590U, 0x3c11edee3d1c847eU, 0xbd8ede703c8b5737U,
  0x3d90fab13dd4d0dcU, 0xbdc00174bcf68765U, 0xbe0c4ed4bde48029U, 0x3e095dfc3d66346eU,
  0xbd3c6e933d4b814aU, 0xbd6d12763dd6f436U, 0xbd266d65bdca8ad1U, 0x3dce6ad1bca8730bU,
  0x3d2542c03dd28d3fU, 0x3e0205cabda7e56aU, 0xbc0cb527bd781b48U, 0xbd65b051bdf0857fU,
  0x3d496f2037b86d20U, 0x3d8035973e0a907bU, 0x3c989b40bdbbd809U, 0x3d9eee193c8a64e2U,
  0x3df46431bcf64466U, 0xbc8300973dc5a840U, 0x3d83c029bccdc2ddU, 0x3d5c7de6bdd0bf59U,
  0xbe075c083dc5d881U, 0xbe06d008bddde72dU, 0x3c63097fbb8f5358U, 0xbbae29103b02d9ceU,
  0x3e273810bd4fae0bU, 0xbd9db6ad3d03afdcU, 0x3e067ea53c6db69cU, 0xbdca04ccbd0ef10cU,
  0xbdccbf003c537762U, 0x3e1ba2d13d4c5595U, 0xbd4a934f3db7f35dU, 0x3d618ede3d767529U,
  0x3cc992563e27a076U, 0x3dff49d13d52ba1dU, 0xbc5e97373de3c094U, 0x3e0d46eb3e13d0e5U,
  0xbdd28ff1bc4e4ac1U, 0x3db45a3f3d72e8cfU, 0xbdf23a4a3e1504b1U, 0x3d4ecba2be14532dU,
  0xbdcd5c02bd32701fU, 0x3ddfc2a23d8f5337U, 0xbda7be8cbdbbd079U, 0xbd9f7a1abdbc683cU,
  0xbe0300773cd9f431U, 0x3d431b363e0623d9U, 0xbe01c55bbd8c68faU, 0x3db343cf3d0f941eU,
  0xbc8d08e23d70f4e3U, 0x3d2a73cf3df6b586U, 0x3ddd92583dfa418eU, 0x3dcc73d9bcd35247U,
  0xbe08afb83da27daaU, 0xbe03aa46bd6bd40eU, 0x3daa1187bd47e83aU, 0x3db3c7e2bca002eaU,
  0x3cc8871b3dd3d55bU, 0x3bc3dc73bcda8085U, 0x3cd1b6a53a5948d0U, 0x3b7a25923d92c936U,
  0x3dd17461bced0f49U, 0xbdb8b5103c4a4af1U, 0x3d94ce69bdac1765U, 0xbd2d1076be02a905U,
  0x3b596abfbdc8442dU, 0x3dc524453d595a0dU, 0x3da367113dfb37b6U, 0xbdd1698abce210d5U,
  0xbd0cde2d3da132a8U, 0x3dc254ddbdf5e6e3U, 0x3d8a2ba3be17ceb5U, 0x3e0f6da6bc76993eU,
  0xbdd72cedbc2ffc52U, 0xbd820be6bd91d148U, 0x3d19a55c3e0cb807U, 0x3be6c92abd4f313dU,
  0xbdad4952bdeca6efU, 0x3c614dd43c29599eU, 0x3d459ed8bdb28a31U, 0xbe0ee706bddf1099U,
  0x3dfafa8abd84b86eU, 0xbcb8cc1c3deb455cU, 0xbdaccef53c7e606eU, 0x3d7ddaf6be0fbd5fU,
  0xbcb7b0b3bcc882caU, 0x38bd4020bd2b6e58U, 0x3c9ce4583dee0505U, 0x3d44bed3be1205bfU,
  0x3cc391743d46f0c7U, 0x3df9d53bbd3ee811U, 0x3e11b2eabdf2e207U, 0xbd7941713d346211U,
  0xbe05ecde3a67468cU, 0x3d9e6526be00e1b0U, 0x3da1c2423cf3a2edU, 0xbdca45253dc82d27U,
  0xbc81505b3db25774U, 0x3e021656bd13c366U, 0x3df7ade9bdc0cfdbU, 0x3de5da7f3c416bdbU,
  0xbb5dd443bdb020baU, 0xbe0d0bccbdd74413U, 0xbdf13c9e3d724864U, 0x3cbeda693ca4d9f0U,
  0x3d3f7458bd07e9e9U, 0xbd864c9c3ceb9228U, 0x3ce54bb33e09dc92U, 0xbd4983efbd9b92fcU,
  0xbd1561633cbaac44U, 0xbd278ac23cadeac4U, 0x3d8096d6bdc87b60U, 0x3c8769c03de29dc6U,
  0x3ddab3903e0d7c50U, 0xbd272743bcfd39d6U, 0xbdbaa4b0bcbf9bf9U, 0xbd16003f3e136454U,
  0xbcf903c23cd105abU, 0xbd90c577bd9f8d5dU, 0x3ca8e00e3de84e64U, 0xbe0a3b55be04b04dU,
  0xbd88773a3e20ac79U, 0x3c24104f3e25e499U, 0xbd3b4fa0bd369f4aU, 0x3d4583f3bd9fccddU,
  0x3d053eaf3be3357eU, 0x3e19b9eb3ceda621U, 0x3dc24b55bd208641U, 0xbdcaea42bd82632cU,
  0x3dde33293d9c97b0U, 0x3dee5644bd5c61edU, 0x3db2d23e3e2b8ed0U, 0xbe03518a3e1cea82U,
  0x3ce586003d09a731U, 0x3dca55743d38ab0aU, 0x3d9b16a13b912dbeU, 0xbe0373bc3ddd3850U,
  0x3d660ace3d8abb0fU, 0x3e08e5243dd2a46dU, 0xbda7b73c3dab75c7U, 0x3e17beadbdbe83c2U,
  0x3d23a4f63d9c6154U, 0x3e249c1abde233eeU, 0xbd9a0937be260049U, 0x3e04e96f3ddc4552U,
  0x3d81e479bd8e8206U, 0x3dbe7aaabda981c3U, 0xbdef097c3e19524aU, 0x3d6ecb72bdb97170U,
  0x3d174eeabbd7da2aU, 0xbd0b67993d742893U, 0xbc9ebc99be1df8feU, 0x3e020cdb3da99444U,
  0x3d9488ac3dfce508U, 0x3d9cc41ebd7a009eU, 0x3dcce60a3ca8bc90U, 0xbcd9431cbd61fd52U,
  0xbd990939bc85c69cU, 0xbcba1fb13d1432d1U, 0x3d4b3918bd529856U, 0x3daaa0073d336a1bU,
  0xbd828898bccf9491U, 0x3e1d90e1bd9c2ffcU, 0x3d0b1b833d91309dU, 0x3e09c2203ddcf013U,
  0xbdc64d03bd25cae0U, 0xbdb559c93e0c1f00U, 0x3e184ad0bddf9863U, 0x3dd57cdcbdda0446U,
  0x3e2944cb3d08d41aU, 0xbdcd7684399ca1deU, 0x3d912dddbdd91181U, 0x3e13ae453a89b548U,
  0x3dc3c2873d9078c5U, 0xbc2952ea3df1a33dU, 0xbb9c0ab5bd577402U, 0x3d87f65cbb95c6e9U,
  0x3d2fc7c53de15c09U, 0x3e0b8a8c3da31c23U, 0xbdd48fda3df33070U, 0xbdb2eec3bda250edU,
  0xbcfa4215bdd36136U, 0x3d54f9f6bd76ca6bU, 0x3d9011063da351ddU, 0x3dc66301bd8ee7eeU,
  0x3d6c738a3e1d319fU, 0xbb890b1e3e1bec15U, 0xbc14bf8fbcf4f900U, 0x3dda3202bda07169U,
  0xbd75dcad3d9e633bU, 0xbdd040c03e016e90U, 0x3dcdea1ebd0cb203U, 0x3cb264933dfeab52U,
  0x3d36a87fbc09e250U, 0x3e0453903dbc4fbcU, 0x3e16fb153d72f159U, 0xbd294df13da4d68fU,
  0xbc9fb7ebbc98ae3aU, 0x3e22849f3e13b884U, 0xbdf792053e011962U, 0xbd6c2c4abe1f1cebU,
  0x3ddd66c3bccbc757U, 0x3e17ffb63db9b141U, 0xbd740c083de931c4U, 0xbdd5959e3c001587U,
  0xbe02093ebe07e04aU, 0x3dae24b23d2a14b0U, 0xbe05db9d3dc3264cU, 0xbcb62c303e0d2c02U,
  0xbd55bf983e06c784U, 0xbdb1a87a3db38bfaU, 0x3d0544e43d7e1dbcU, 0xbd2c76f2be0f08b1U,
  0xbbdd13e0bdfc4909U, 0xbd212b5cbe115453U, 0x3ca79ef8bdfd30dcU, 0xbcd9032cbd984b94U,
  0xbde583183e123712U, 0x3dbd1e9c3d1d6d48U, 0xbe137784bcbc67fcU, 0x3d4c9b743d3d7e34U,
  0xbe130c06bd3b002aU, 0xbd633ac8bda2fe3dU, 0xbdc69296bb2cde6dU, 0xbdf1187abdcfd1e4U,
  0x3d9c5f2cbb542c5fU, 0x3d349883bd0298b4U, 0x3dc35fac3d3d4bebU, 0xbd0ded29be05937aU,
  0x3cb274e33da29ed4U, 0xbe0dceed3cd6780cU, 0xbe09914bbdfa5de1U, 0xbd7d91edbd816267U,
  0x3dec6f7c3df8a28aU, 0x3dd48227bd56d040U, 0x3d9fb2aabdebee9dU, 0x3b99b39fbcf542ceU,
  0xbdc15f3a3dbfcaa8U, 0xbe07dc0dbc491180U, 0x3d15ebb0bb4f05cdU, 0x3d613c073e0a6f93U,
  0xbe012133bdd148dfU, 0xbd1ad449bd724b4aU, 0xbd49d3263d6811b0U, 0xbd3566f03dcf3d33U,
  0xbccb0df4bda69cd6U, 0xbd69d473bc8dbc04U, 0xbe109ab7bd8c405fU, 0x3dca4bcb3e0a5ec6U,
  0x3d04a3803cdcef40U, 0x3df5b687bd33f00cU, 0x3d997ae33dc73a99U, 0x3e07b760bd90bcc1U,
  0x3d939ece3d5f01e0U, 0x3da7ba3abd432f96U, 0x3e08ba89bd8cdad4U, 0x3d86fd403dd5500aU,
  0xbd6f432b3d3244d5U, 0x3c70e1a9bd8276f5U, 0x3c4c51c1bd98023cU, 0xbdf1d5c6bd8f1a8fU,
  0x3e2625643caf2d4bU, 0x3d1d3050bdfc936dU, 0x3da665e53d41ff70U, 0xbd8be54fbdefbf5dU,
  0xbdf66b893e0d2b11U, 0xbd3aee053d47de8fU, 0x3d7211a73d11105aU, 0xbdc4dd0ebd854f99U,
  0xbbf239e53e225787U, 0x3cbeae0bbc46d10aU, 0xbd95e19d3bde8621U, 0x3c50a4e5bd411b25U,
  0xbd963b5c3d9bcabdU, 0x3dd933cbbdfb6afcU, 0x3e139a283bd0106cU, 0x3de53120be048e6eU,
  0x3d9566453d0bff84U, 0x3d8bcce63d8d53f0U, 0x3db048b23d41a199U, 0xbda4a236bd8860a9U,
  0x3e0e5996bd25acfaU, 0x3c6920d93e0bcceaU, 0x3bb3a20c3debeb92U, 0x3ca32dea3de42313U,
  0x3e142493bd80f002U, 0x3dc81004bd2f855bU, 0xbd35406abd730154U, 0xbdb2314abdb8b889U,
  0xbe007baebe1ceae4U, 0x3df2bd89be037e4cU, 0x3e16e8583e007b43U, 0xbd99925f3d52e1c4U,
  0xbde9ead3bdbac279U, 0xbca5474dbda468cbU, 0x3b8b0963bca6e210U, 0xbd26cd813c9c0f11U,
  0xbde5a6813df340c7U, 0x3d9143263e1dba40U, 0x3dd636633e1b7055U, 0x3def05323d8d1103U,
  0xbd0bf7d33de1cc4dU, 0x3e02829ebdcc2a2fU, 0x3e0c0347bdb6c943U, 0x3dcc2ede3e1d7ab2U,
  0xbd5be2eabca2a877U, 0xbdee7e583d8e3d66U, 0xbd87f3ddbcd7dc5bU, 0xbd781556bdafe9a5U,
  0x3dc72dea3dfac79bU, 0x3dda1f57bdd43e30U, 0xbd75edb03df77080U, 0x3db985383e161e16U,
  0x3dfaea4d3e0f1d56U, 0x3e136fbcbdd41aa5U, 0x3de9a97a3e054f6eU, 0xbdfcc797bd690c65U,
  0xbdb0567bbde6ce78U, 0x3de11c3dbd07b571U, 0x3ca409f1bcc19e0bU, 0xbdbd51bdbd6a8b03U,
  0x3dc10b81bdae928fU, 0xbd74591dbce09620U, 0x3d80269f3d896c62U, 0xbddee26cbd8c8371U,
  0xbcfa2b0dbdc042feU, 0x3dff0738bde9a8c3U, 0x3d397a34bdb0cdd1U, 0xbd3a78913cd99261U,
  0x3d5b84a93c15bc51U, 0x3da69a66bbc98a08U, 0x3d3a1aadbd3d02d6U, 0xbdcdecaa3df2a139U,
  0xbddeb7f73dca7187U, 0xbd07c2c63d7c6ebcU, 0xbe0c0da5bdb2c3cbU, 0x3d2b2e45bdedc0f3U,
  0xbd17db62bd78e242U, 0xbdccd6e5bc37ff80U, 0x3ac9c38d3d33e1a4U, 0x3c8dda8bbd4ce722U,
  0xbdb13f653e08959fU, 0x3e0fae633e1b72c7U, 0xbc5ed8883d632352U, 0x3dc81062bdf1cb02U,
  0x3dc6e7ff3b4e2177U, 0xbd1930bc3d7332b0U, 0xbd95eedfbce91831U, 0xbda1206e3d7eee55U,
  0x3d5a55eabdfb38bcU, 0x3d3772a23da107acU, 0x3e079e343de45908U, 0x3d9a6916be02040dU,
  0x3dcdbf88bbd312fcU, 0x3d8b36c1bcb08080U, 0xbcf1e7513e06de06U, 0x3d95f6f7be111c31U,
  0x3cc5a571bd96465eU, 0xbd1d8ae43cd2482dU, 0x3d7019d73d8b6c6cU, 0x3bed0556bd423ae4U,
  0xbdbfea0c3d897dafU, 0xbe0a5670be092365U, 0x3da40cd73d50f687U, 0x3d1059b7bbc5d79eU,
  0xbb4cc20d3ddd85b8U, 0xbde1cae23e1c1c9aU, 0xbdbece343e00f022U, 0xbc94bd0c3c171736U,
  0xbd88c1563d845dddU, 0x3d2728533daa8b8fU, 0x3c3fb4fdbd9617aaU, 0xbcbccea0be0d5afeU,
  0x3cc95807b9eac1b2U, 0xbdad41883dba6a5aU, 0xbd2445a13d8d8824U, 0xbdd9dfd73cd877f6U,
  0xbdea06af3de7ee38U, 0xbe08a689bd194e96U, 0xbd7fbdcdbde5c118U, 0x3c21d43abc1a75b3U,
  0x3cf20f1abe1497a1U, 0x3dde635fbbb3aad7U, 0x3d58959abd6997ccU, 0xbe0b79e13d11394cU,
  0x3dcb7844bd5da764U, 0x3dd048a2bd313b1fU, 0x3d50026cbd788a78U, 0x3d88dcc2be179e4dU,
  0xbca286643dac6ba0U, 0xbda19301bdec10e7U, 0xbd85aaca3c0f5ad9U, 0xbd73c2f33dc098e0U,
  0x3da5e5b93dfca10cU, 0xbd03b497bd22ea7aU, 0xbdfdf9a43dc689e5U, 0xbd33dfd93d90004eU,
  0xbcc8cdabbc596b57U, 0xbd9f4978bbb8782eU, 0xbd9d2ad23e173fecU, 0xbd03ed10bd385885U,
  0x3d90ed8ebab4619dU, 0x3dc841f83dc404c9U, 0xbdcef90dbd5376c3U, 0xbd1d55c0bd9436c3U,
  0x3e279998bd54abe9U, 0xbda322b23c93957fU, 0x3dbe299dbdc953f6U, 0xbdcc88c83dc7716bU,
  0x3ddcbbab3db2921aU, 0xbccafc0f3d0393b9U, 0x3ddef7c63c736bd3U, 0xbd43e356bd5ba374U,
  0xbd8c2ca73db4b215U, 0x3e1962213de46619U, 0xbd2d5954bcec21c0U, 0xbd8a783c3dddd8bfU,
  0xbdf82b883e10e407U, 0x3d2d5259bd886c89U, 0xbdbdc1f7bdb45ebcU, 0xbd08450e3d3d57beU,
  0xbd6663423e01dca2U, 0xbdbd2f2b3d393b08U, 0x3e2219bf3df8eeffU, 0x3d6d35983d67ca9cU,
  0x3d3152413e09b4b3U, 0xbcfe7095bd9cd7bbU, 0x3d8d2223ba05e682U, 0xbd48fad0bdc50935U,
  0xbcc763f03c40765fU, 0x3e03d4e5bd75c41fU, 0x3d7f2f613dbffb04U, 0x3cfd5a333c8e999fU,
  0x3dd256b73e06af26U, 0xbcb07bb83e1cde67U, 0xbe048f0fbe0c6ddaU, 0x3ca870e9bc85c6c2U,
  0x3e038f573e095d82U, 0xbdf818d6bdd9ad36U, 0x3e208282bde68d0bU, 0xbc95f7933e1e700fU,
  0x3de1ba593e1bf323U, 0xbe0269b73e0dd046U, 0xbdc998363b429e0eU, 0xbe061f24bd0b650cU,
  0x3dfdef91bc9e784cU, 0x3dc6922cbbbbf177U, 0x3d8f90e3bd4990d2U, 0x3ce738ea3c6e843eU,
  0x3de06983bd912ab5U, 0x3d4cd680bb649757U, 0x3df4c96bbd643096U, 0x3e10a229bd06e154U,
  0xbde9a3a9be0e8342U, 0xbcb4d4fbbdecaef0U, 0xbda99ca13e0c3f05U, 0xbd39e2eebda2fb63U,
  0x3df552953da2ac86U, 0x3dcca8eebc76b5c7U, 0xbdd7d337bdc22e6bU, 0x3df947b33db65631U,
  0x3df2f103bc8f5041U, 0x3bbdfe50bdcb064bU, 0xbdd2b3cfbde7f9cdU, 0x3d8fcf9cbd9f661aU,
  0x3db3688c3d02faf6U, 0xbc2cc936ba81de4eU, 0x3cfb5f56bd27ec69U, 0xbd20d686bde4c1d2U,
  0x3de5dd343da0f044U, 0xbdec2b79bd82a4e7U, 0x3dd85892bd4b8648U, 0xbcfd3422be1200ddU,
  0x3dc521353dd4b7c4U, 0xbdab37f1bd1c4824U, 0x3c9be6ba3d3b1de4U, 0x3dddaa653dc51c55U,
  0xbcdbeb7e3d91ebd7U, 0xbe047090bd891c2bU, 0xbd194ba0bd302cfaU, 0xbce9549e3db01be1U,
  0xbd97ce353d83c31aU, 0x3d47cb193e0856deU, 0xbe0d4ab53dd4184bU, 0x3dcdf4a63de5c592U,
  0x3ccd2ef63db557bfU, 0x3d9077f3bdf7520dU, 0xbe11c1b5bd47d621U, 0x3d43a0bbbd991243U,
  0x3e2968303c572272U, 0xbd2a3a223c394efcU, 0x3e2729403dffc98aU, 0xbcea515e3de54af0U,
  0x3d8c81efbd3a3949U, 0x3d6fb9e3bd9e736eU, 0x3dd2d6173deb3ff7U, 0x3ce79b123bbd4280U,
  0xbc2ac11cbdd22f9eU, 0x3e0f9306bd13b81eU, 0x3c0bfd933c812824U, 0xbca7960abbf8d39dU,
  0xbc5238963bb58f3aU, 0xbdcc97113c72d0ccU, 0x3da1ec6a3d564fa7U, 0x3e25b39ebacc1e7aU,
  0x3dee310ebd20f5cbU, 0xbdc4a0ce3dc3f1a1U, 0x3df9134f3d2a8dd2U, 0x3e2de9503d9f041eU,
  0xbcc51f71bdf17289U, 0x3d61aa633d7a31aaU, 0x3e26e5b2bd8c436aU, 0x3c678f2b3d4b23a3U,
  0xbd2abf893dd33b3eU, 0x3c390ee03dff5d23U, 0xba54f9863dd8fdb4U, 0x3e0c80bdbdd402fdU,
  0x3d175a5fbc93a382U, 0xbc8a3f32bd97517eU, 0xbd25b061be05a61fU, 0x3dbd7196bd15c716U,
  0x3e21f82c3cfc5104U, 0x3d8f1ac33b163675U, 0x3df4f89f3c6747e9U, 0xbdca15b73c3bb18cU,
  0xbceb64093c741c3eU, 0xbd08b1b5bdf3fae6U, 0x3cf229c8bc48d75cU, 0x3de0ace73dec1dd5U,
  0xbcbe47d2bd95a490U, 0xbd7bd0293d926bbfU, 0xbd40b3dbbcfedd26U, 0xbdf661083c95a471U,
  0xbdf41753bde2ad79U, 0xbd3dade43d993f1eU, 0xbd7c6f7c3c242539U, 0xbc88eb47bc823baeU,
  0xbdcd0acdbdd04526U, 0x3d0b3f5ebda277e1U, 0x3e25fcc3bc8ebb75U, 0x3d9fcfe83da30610U,
  0x3dfffabdbc762506U, 0x3d847a0cbdc47c33U, 0xbe0e98e2bd27ed23U, 0xbe1509dbbdf79c2fU,
  0x3d83e4cdbdfccff9U, 0x3d1fe8573cef1f4fU, 0x3d7a93253d92dde0U, 0xbdb077ca3dd7d6eeU,
  0x3da93b313de74186U, 0xbc926a10bd969f22U, 0x3dbc02483da10d75U, 0x3daec2d63dd54d2cU,
  0xbdb28c75bd647834U, 0x3ca5f347be0c251aU, 0x3dfed202bd475bbaU, 0xbe010537be142e05U,
  0x3d3e1d38bd802aafU, 0xbcdf684d3dceaa3fU, 0xbcc666cf3d955d35U, 0xbd52376ebb7c1cf0U,
  0x3d3049433e027d57U, 0xbe0b79e8bcec07a0U, 0x3e051c873cdf37c6U, 0x3d51d011bdd7e062U,
  0xbe0bb8afbdf569e5U, 0x3da5c2c33d206350U, 0xbdaff5e3be02a0f5U, 0xbd36963ebd6fedd5U,
  0x3df219b0bd140242U, 0x3d1dac38bdcbc9e7U, 0xbd87e3323d44acc2U, 0xbe152a773d7945fcU,
  0xbdd67388bc4c7220U, 0xbd3422603de88f48U, 0xb8d59000be0162e6U, 0xbda917ebbe0ceb9bU,
  0xbde1cd0c3da8d1c0U, 0x3acb7400bdf5b3f2U, 0xbcb2f95c3da31e68U, 0x3bbe7cc0bb955a80U,
  0xbd06bf98bdc15a9aU, 0xbe00b5813c890378U, 0xbcf5b480bdfd1ec8U, 0x3d495b48be0ccbeaU,
  0xbcc7bed43e0c7b2aU, 0x3d11a758bd941808U, 0xbd82cc34be118953U, 0xbda96917be078e50U,
  0xbc1967c0bcc5977cU, 0xbe12be163d8abd11U, 0x3cad80bcbd8201ceU, 0xbd17b6eabd328b1dU,
  0xbd6e55babdc5f61eU, 0xbddafbf8bc41fdf0U, 0xbd47484dbd9d5390U, 0x3e1383e13da37a86U,
  0x3df6c8bcbd6cb7ceU, 0x3c57158dbdfaeb6eU, 0xbc928c953d8ae656U, 0x3ddc3e563e2b0157U,
  0x3dc584263dc9224eU, 0xbe1392cebd8ec4ddU, 0x3d490d3c3e0246cdU, 0x3db1cf2b3d060eceU,
  0xbbfe7dad3da41b0bU, 0xbcf05051bb982cbcU, 0x3d9b41a9bbab76e3U, 0xbd8b6f60bd135a85U,
  0xbc265e2abd41a840U, 0x3d882587bd0579b5U, 0xbd447c4e3dc5ba14U, 0xbd17f3463d769ea0U,
  0x3df48e53bd3d7de9U, 0xbe04c0e03dab4cebU, 0x3e25f7b63ddba27dU, 0x3d2a3a2b3d8e8013U,
  0x3dd10b463d3c171aU, 0x3b452df43df91185U, 0x3e0078c6bdd21d81U, 0xbe2c51eabcbefc47U,
  0x3e0f2c54bde853b6U, 0xbd2394633db379b4U, 0x3d8817c53c11a9b3U, 0x3dc4e7723d951880U,
  0x3dbb803ebdbc1093U, 0xbe0d71db3e14e610U, 0xbda0c28dbd3c5ce6U, 0xbd343b1cbc41799eU,
  0xbdd9a9a63d8f9452U, 0xbdc280e73d589fb3U, 0x3e25febebd9dbb51U, 0x3d9d269c3d02d5d9U,
  0xbde4dc783cd3f037U, 0x3dca7dc03dd32a10U, 0x3dd7aab33dfcb6dbU, 0xbd843f8d3e08a2a0U,
  0xbe0c5266bde5652eU, 0xbd960e023dacbc49U, 0x3cd0d6b03ddf0cd2U, 0x3e0a186cbdde4487U,
  0x3de6c7debdc72ca7U, 0x3d8dd9483c1a9b17U, 0xbe03f4f1bd0b1ca4U, 0xbdd4b4573de151acU,
  0xbd3400c7bdee9359U, 0x3e18a63cbcbb29f2U, 0xbc2d497cbd0d04ffU, 0x3d513cad3d5561d1U,
  0xbdf5a2b13e1ab133U, 0xbdc4a98abde40269U, 0x3ca121333d690e14U, 0xbc07564fbddb9ab9U,
  0xbe0df1d53d0c3f5bU, 0x3da9c6a1bda4fc5bU, 0xbc555a7ebd32be52U, 0x3d0131083e29340bU,
  0x3de5d7cb3deaab7cU, 0xbddce9743c62ec1aU, 0xbdecee2f3d91c88dU, 0xbcd192963b1d516bU,
  0xbdbd9499bd2f9969U, 0x3c13f2763d8df1faU, 0x3cf4d6043d48ad21U, 0x3e02df4b3dbb1e7dU,
  0xbd16bbaebcb97b35U, 0x3bc3b28a3dc0a7cdU, 0xbe0414a73cbe8b90U, 0x3dcec855bd930f96U,
  0x3dda4c223dcb9e56U, 0x3d805a1abda49a61U, 0x3e18cff1bd3b3b98U, 0x3cc602513df1eadcU,
  0xbd05cf893d6b8e73U, 0xbdbaf4de3e252a76U, 0x3ae6f15a3e0cb88cU, 0xbda86f863c18e3a3U,
  0x3d3c21993d9838d8U, 0x3e0c26fa3dee9a22U, 0xbd82e992bd62a518U, 0x3e1617be3cb3b16fU,
  0xbdf6a3e03cc5d095U, 0x3ddae0f9bd8418b7U, 0x3cf306793de8d203U, 0xbd3c0a85bd4ca0d0U,
  0x3c873d103c784d4bU, 0x3d8562bbbdcf778aU, 0xbbdabf6a3d1864c4U, 0x3dca58c03e215ce5U,
  0x3d09f7c13d9c5ccaU, 0x3dc5c381bd639e4bU, 0xbcdfcec7bd76c39cU, 0xbcdf4bda3e217153U,
  0x3d80d8a1be03b6c0U, 0xbe0174283d932ec0U, 0x3def1869bdbd4e3fU, 0xbe0136cebcfa706aU,
  0xbd9a5c303b186d0fU, 0x3dcad2033c25e5a0U, 0xbe00c7253d817644U, 0x3d092478bc59b261U,
  0x3dde4e8bbdfb4b12U, 0xbdfda6fa3c9917bdU, 0x3d6441a0bdba2e4cU, 0xbe0886d43d0e7d5eU,
  0xbdd34800bc910990U, 0xbdae1285bde8343dU, 0xbdc25502bcf16a6fU, 0xbdfbadfbbdfe3ef6U,
  0xbd9b4acebdaccc84U, 0x3ddd2587bc44a72bU, 0xbd3d09a03d98dfeeU, 0x3dfccc18bdf5b28eU,
  0xbe13fee93d752163U, 0x3cd5258a3dd7754cU, 0x3d051d583c4334f3U, 0xbb8c5da53e109582U,
  0xbd974b6dbd6d132dU, 0xbd81700ebdf3519fU, 0x3da235863dc651e9U, 0x3e02fb453bff1f59U,
  0x3df14a6fbe0016d8U, 0xbcde61fbbe068960U, 0xbcc761123e118b6dU, 0x3d297fabbdd2ef54U,
  0xbdfafc4cbdd9fe70U, 0x3be4c24fbd42549aU, 0x3d706d683dfc2f46U, 0x3dc7f7653c052e36U,
  0xbdd3f0283dbbac7cU, 0xbcfebfa93d433af7U, 0xbd55cff3bd240f63U, 0xbca801f5bcf8f67fU,
  0xbce3df783bce1ef9U, 0xbded0717be1d18ffU, 0x3c4f817cbc956c38U, 0x3daee56b3dc6902dU,
  0x3df8e4343cf0c001U, 0xbdcdddfbbcd9e60fU, 0xbd2b6aa6bdcce410U, 0x3e04a164bd4004c0U,
  0xbd9a18483cc1ec9cU, 0xbe02f8563d7882e4U, 0xbb9ea498bb278e1dU, 0x3cea5c90bcf0e951U,
  0xbda591dcbe1db911U, 0x3d8ad6f83e01cd80U, 0xbda49d163ce73f8cU, 0xbda78f513dd702a9U,
  0x3ca28f6cbde72dafU, 0xbde647e63d980d53U, 0x3dacac553daff457U, 0x3df4e92cbdff03b1U,
  0x3d2fa0493dea61a3U, 0x3dd404ddbb9baaa3U, 0xbc56aee3bdafba80U, 0xbd972b4cbdc3c61fU,
  0x3d9d9283bbd56deaU, 0xbdd4702fbde705d4U, 0xbd78ef863dd2d8c2U, 0xbe16ca133d93e126U,
  0x3df6ed623c119390U, 0x3c4158293d8b5887U, 0x3dfa49afbd5bd467U, 0xbdc77aba3dcdbdeaU,
  0xbd850bea3e0403d9U, 0xbe09c27ebd902bb8U, 0xbe028e93be146818U, 0x3da5e293bdce1319U,
  0x3d4a678a3cdfe7d9U, 0x3c2c7612bdfe2fe9U, 0x3dfb2f0abdd6b3a7U, 0x3da497783dbf53bbU,
  0xbcb4042fbdf64041U, 0xbc7f8afcbd40aaccU, 0xbdf6ae6fbc9e7b38U, 0xbe0624683b6d44faU,
  0x3e01475fbb884c29U, 0xbcdab1be3d92d8e1U, 0x3db5ea1ebe058d54U, 0xbdab5055bdada4cbU,
  0x3de71254bd8cfd24U, 0x3d4c9eac3dde141cU, 0x3db6f0b0be00cd42U, 0xbd9e73c83e094caeU,
  0xbe121ba83d7450c0U, 0xbe08b59cbd899b51U, 0xbd8aae023e059c12U, 0x3d05ffd83d045824U,
  0xbd1478603d7897bcU, 0x3d299aa83d8f00e6U, 0xbdb844833dce76d4U, 0x3c2b50b03c08b2f0U,
  0xbd43f2cabde6f14cU, 0xbdaf9a063e09c9deU, 0x3d7e39b4be04bb6dU, 0xbd989a883cac8d58U,
  0xbdbf9136bda3cc5fU, 0xbd8a2fc93d437278U, 0xbe0d12dd3dd358b4U, 0x3d461da8bccbec4cU,
  0xbd8b2da33de33044U, 0xbd2f368ebdbe8467U, 0xbb65c080be040b45U, 0xbdd3f2d63de6a8e8U,
  0xbdbdd78abd676a0eU, 0xbdb1ed13bd73dd1aU, 0xbdb81492bdd13819U, 0x3dd93a2c3e0e055aU,
  0xbdf5709d3dba2f18U, 0xbde99b4bbce9af14U, 0xbd5a4d443dd893f8U, 0x3d90925e3dbc3b1eU,
  0xbe03caae3db8c6ccU, 0x3c6f5bf03ccf4ff8U, 0x3da5234cbdaaca7cU, 0x3e0dd17e3d8f74ccU,
  0x3cd42f90be0f2d5cU, 0xbe05cb7e3de58a70U, 0xbd74bb2abda9d52eU, 0xbd769a0a3cbf6620U,
  0xbe07fa2e3cb67d70U, 0xbceb17803cf502c0U, 0x3d8280d2bd2b7b8cU, 0xbe0997ef3dea4e7cU,
  0xbd2eb75c3d445388U, 0x3db90d163d257a80U, 0x3e0515ae3deae4a4U, 0xbd764f18be022434U,
  0xbdce4547bd3b5b39U, 0x3dd21e1c3b10b9c2U, 0xbd3637cf3d61d59cU, 0xbc310ea4bdd51b1dU,
  0xbd87c8a6bcdc66a8U, 0x3dcaa3353e07bff1U, 0xba77fbfc3da2c18bU, 0xbdb749423b271eb2U,
  0xbd88420a3d2881baU, 0xbc6ebaf4bd821bd4U, 0x3d7278f8be2251bfU, 0xbdb897e4be0d29abU,
  0x3df24527bdf60d57U, 0xbe124a64bdd68f3fU, 0x3dab98c5bdd01ac4U, 0x3de8ab74be171531U,
  0xbdc10c86bd808562U, 0xbdbe8d44bd3689f6U, 0x3e1860453dbae307U, 0xbda06e8f3cda9836U,
  0x3d0c4d0dbdf7fae1U, 0x3e0180a13d836d9cU, 0xbd83f6c13cdc83deU, 0xbdc1850e3d9c1abdU,
  0xbdb16da33dd9d1d9U, 0xbda6cfb13df01c9fU, 0xbd541d8bbdce4954U, 0x3e0530c63e03464dU,
  0x3e179ccbbc85ff39U, 0xbde9ed85bdd2a561U, 0x3c3763ebbd9215fbU, 0xbd9371343ce3c155U,
  0xbc310c1ebd431b2bU, 0x3958f85e3d5992e8U, 0x3d126b3ebd9c9192U, 0x3d15fc18bdf8eb59U,
  0xbba97aeebd48618cU, 0x3d72d2febdb0666eU, 0xbdfa1ca23d686a7aU, 0xbd308a3a3d065f4cU,
  0xbd1a2eefbd9ff4bcU, 0x3dd2eca8bdfa2f47U, 0xbd3dd7c6bdfa5382U, 0x3aca5599bde8b80dU,
  0xbc86b60ebc91d79cU, 0xbd3bd2283d59075dU, 0xbdd4b3dabe06198eU, 0xbdd4a4d4be24d8b2U,
  0xbe1badc73dc166fbU, 0x3da1b14d3e05803dU, 0x3d5b68583dab48e3U, 0x3dcbab8bbcc81e1bU,
  0xbdfebee6bd2abdc7U, 0x3ac15355bdae63a9U, 0x3cfbaa14bd148584U, 0xbdef3a37bcf490a1U,
  0x3db342cf3e10cf17U, 0x3cd563ac3cfd804fU, 0x3d0fcdf4bdf6f020U, 0x3e1cc631bd88af16U,
  0xbdc3a770bd9ec486U, 0xbd9ad9adbda4e58cU, 0x3dcc128abcf8ff75U, 0xbc16250fbdd4865bU,
  0xbd720f6f3e127d50U, 0x3d96e928be1cbf7dU, 0xbce192743d04f3b6U, 0xbe0b30883e25b8e3U,
  0x3e0deda33d3679bfU, 0xbd80d5643dd68159U, 0x3d25e3613d418a63U, 0x3d90a1e33de0c077U,
  0x3cece6b6bcdbcbe4U, 0x3dcb353abe1a99d7U, 0xbdbc99c83e008d15U, 0xbd92f137be07f65aU,
  0x3d2afab83d988156U, 0xbda039d83d81b79eU, 0xbd39f1f9be1e448dU, 0xb98636d63d9e5faeU,
  0xbcc870bd3cebcc47U, 0x3e2888a53dc00ea8U, 0x3e2196473c5ff199U, 0x3dc26cd73dd719f6U,
  0x3d8e4ee5bda9bca6U, 0x3d4c9f223dae2d3fU, 0x3cd286e8bd8fac59U, 0xbdf42a783c49710aU,
  0x3dd6630bbd531faeU, 0x3dd17f03bde06546U, 0xbc9a3eaebda04c2dU, 0x3e0358c7ba1744d4U,
  0xbce85ed8bd2ce83aU, 0x3c6f4eb7bdb9135aU, 0x3cd278723cf48403U, 0xbdb961ea3dfb8a2aU,
  0x3d812cfe3dd987a9U, 0x3d24cfc6bdf64ad0U, 0xbd5f9368bd966c02U, 0xbe0a8be3bd1d830cU,
  0xbb06da613debb566U, 0xbe137143bd76fbadU, 0xbe1b3a06be017498U, 0xbdec94863d9e2d99U,
  0xbda577533dc36cccU, 0x3bdd972cbcfba3f8U, 0xbddb7986bc970c34U, 0x3dbc7a8cbdad077fU,
  0x3def75afbd53f0b2U, 0xbd29c769bc04d04bU, 0x3df3e4c7bbea633dU, 0xbd4c0c9ebe04302fU,
  0xbd7042f1bd12e719U, 0x3be50ddc3e04c287U, 0x3def59843c944769U, 0x3ba9b47d3a6df496U,
  0x3d8b98ff3daa5d73U, 0x3db2b633bd94e710U, 0xbd65042b3d2e5321U, 0x3aae1529bd02c6baU,
  0x3c07169cbdd494c0U, 0xba6a76f23d692b97U, 0x3d22f4e23e076a6fU, 0x3e0bc5cabd33b29cU,
  0xbddaabb2bde8b0c7U, 0x3cd2bebbbd52b4e0U, 0x3db230063dfe083aU, 0xbd7dceadbda4db1eU,
  0x3dc4ad35bd71b7d8U, 0xbdc596983bb6ddb2U, 0xbdd9a8e23d3da4b4U, 0x3d8c9d1cbda630c8U,
  0xbd9768bc3df66aa3U, 0xbe1cfa6f3d178c7dU, 0x3c812d3cbbcfc8beU, 0x3ce4df253d85b94dU,
  0x3c6e00db3df479cfU, 0xbb15982a3e07df8dU, 0xba9454d1bdd4a1e1U, 0x3daf8affbdc4f134U,
  0xbdd8dde6bd87d645U, 0xbd9e7d06bdc26892U, 0xbc9f8d243db43a78U, 0xbe1b73913c786ef9U,
  0x3e1c6d183de51153U, 0x3df390d6bd91c296U, 0x3dec48cebddc61bdU, 0x3da8dcd9bc502ed4U,
  0xbdc00b163d42c04dU, 0x3da043223d87b67aU, 0x3c1f02843d48a94fU, 0xbe1864a4bc904141U,
  0xbd54bc3dba68b8e3U, 0xbdb846f2bdbd3293U, 0x3d6e36563e18d4aeU, 0xbde18f4a3e06ca4eU,
  0x3dc667c33e15b7cfU, 0xbd52aefdbdfe8bd8U, 0xbd35008c3e1d7ad0U, 0x3dbe2151bdc0186cU,
  0x3e17e8d5bdcaefdbU, 0x3e0297c23dc463afU, 0x3e05a07ebc948dcfU, 0x3d221973bde6153cU,
  0x3dcb0fafbd8e1143U, 0xbd99a8953e10a9ddU, 0xbbcc1971bd4d8424U, 0xbdcd46713da287faU,
  0x3dc09c643e14b8ceU, 0x3c3fa4d2bdeba974U, 0x3dcfb5673de1f5d1U, 0xbd7a2cfb3e09675fU,
  0x3d695ab13d08e22fU, 0xbd924d57bdccc037U, 0x3a9a480b3dfcc6d6U, 0x3dbe24ca3d23845fU,
  0xbd51cf963dc935a7U, 0xbd3489cf3dc7b167U, 0xbc855ee5bd94a53fU, 0x3d6fa5663e0af848U,
  0x3d0e3e553e182a77U, 0xbdab1fdb3c807c54U, 0x3b109dbebd1860ccU, 0x3de513633c8ea267U,
  0x3e0bc7473d9c132bU, 0xbd55e361bd064f03U, 0xbda9e6a43d498ad4U, 0x3e0f3dde3d7509f3U,
  0x3e1196673e1411cdU, 0x3d5a290e3d0b93efU, 0x3bd7cca83df706b2U, 0x3c8dc1ea3c18c843U,
  0xbdff6ec3bdfefddeU, 0x3d1e1df7bdb0976cU, 0x3e11801ebd8c58d1U, 0xbdcd3d6bbd858b9eU,
  0xbe1ac802be0aa2e5U, 0xbd5c8f31bde6a92bU, 0x3b41004cbdc507b9U, 0xbc81e286bda78428U,
  0xbb1b04283dd58b83U, 0xbe14e7f7bd611cc8U, 0x3d2d6b043d331115U, 0xbd685da3bdfaed9dU,
  0x3cf456e53dd56857U, 0xbb98ba993e160f20U, 0x3e04acf03d1f3aa0U, 0x3e1fc9b8be01865aU,
  0x3d27d7633caee7b9U, 0xbdb234babde93705U, 0x3cae48773df9cdd2U, 0xbce65a6d3da12c08U,
  0x3df3bf56bd921800U, 0xbdaabbfdbdbaf11eU, 0xbd2e4e613decfdcaU, 0x3d10d9ce3dcfaebfU,
  0xbcfa6e843c230bcdU, 0x3add14c6be2a70e9U, 0xbc909e86bcd09cd3U, 0x3cfbd14dbdcfb9c1U,
  0x3e149ad73c7ef79aU, 0xbd9c81c73d91cbe8U, 0x3daa8b9f3c15afa1U, 0xbd2578cb3b9924e9U,
  0xbcece5fabd373505U, 0x3d5260f03de4cdf8U, 0xbdaf60853c140fa6U, 0xbe0a71f0bd2aad4aU,
  0xbdf953a93d4ff900U, 0xbdc114113d797ccaU, 0xbdcba0efbd9d54d2U, 0x3e055dddbc580a15U,
  0x3deaf864bdbf4978U, 0x3c289385bd56fe70U, 0xbdcd3d97bc4f7260U, 0x3dffe86c3c0d5780U,
  0xbd8a57143ddb10d2U, 0x3d178fe03d34360fU, 0xbd4597063c7b27d8U, 0xbdb20194bd922b8dU,
  0x3dde4803be190446U, 0x3db501d8bd71f9b6U, 0x3d434fcabe008a05U, 0x3d52482cbd408291U,
  0xbda022103e05eecfU, 0xbda5b669bc3e3385U, 0xbc5cecefbcf92a22U, 0xbd1b23343cd716c3U,
  0xbdfb20a1bdc1a426U, 0x3cc2ea00bd7b2b0aU, 0x3e0042323d7312aaU, 0xbe19f98bbc19d7abU,
  0x3e06dca03dd73394U, 0x3def847ebd92c5ecU, 0xbde57e14bde53b81U, 0x3cd56e4fbc7908a6U,
  0x3d9297f93d92147fU, 0x3d340354be030b16U, 0xbd877357bde58b54U, 0x3e032fd73de2f059U,
  0xbe0028e93b007d5cU, 0x3dba111d3d977aa5U, 0xbd7de01abd818a67U, 0x3dc28b4e3cc44851U,
  0xbe1775b1bd8c8c2dU, 0xbda804b33df3471bU, 0x3df9b5bc39db5ac8U, 0xbcbb3b8abd807b82U,
  0x3dbe23a73dc1d17dU, 0x3d2e1b03be163404U, 0xbddbdd273e163700U, 0x3dbeead5bd7f122eU,
  0xbe173e7dbdf0c3e1U, 0xbd36cd083dfa3b48U, 0x3cb11fc63d41c5f8U, 0x3d31eff83d61b5fdU,
  0xbb115a8e3a66522cU, 0xbc15b99bbc176d50U, 0x3e095c453ddf7e43U, 0x3d0d2642bdb58e23U,
  0xbddcef58bde0e55aU, 0xbdc27cc2bc5585f8U, 0x3dcd516fbd87371cU, 0xbd9de78e3e0330f8U,
  0x3cd56665bdd37610U, 0x3dc73246be018486U, 0xbc617002bd4b0cc2U, 0x3da9de82bdc797e8U,
  0xbd253af73e0f7431U, 0xbd11c94d3c36d238U, 0xbda637553bc47527U, 0x3d063961bd68a15eU,
  0x3b69395e3dabfaddU, 0xbdda01173d0f4bb4U, 0xbdf054b9bdabd46aU, 0xbddb2886bd75cefaU,
  0x3d7507583cb506cdU, 0x3c135e1a3dc94913U, 0xbbafad453e0dd4e2U, 0xbdcab021bdfdb049U,
  0xbcc528723aaed6d7U, 0x3dfb93773ce4cdecU, 0xbd2a7afe3da1eafdU, 0xbbcfb812bdd9d9ceU,
  0xbd43b610bc49d0d6U, 0x3d556eb7bd95d6aaU, 0xbd3896f7bdb7c701U, 0x3d7e0e9f3dbaa971U,
  0x3b72c8d7bd94e65dU, 0xbc6d38a63dbc0a47U, 0x3d61adccbd28da7cU, 0xbdbec24fbd9c3863U,
  0xbdf427893ba9c1e2U, 0xbc6c218d3dd68f7aU, 0x3d05a61c3db967efU, 0x3e0a915abdf957abU,
  0xbd63e9eb3cdead44U, 0x3e0d4e943e0f0654U, 0xbd326de6bc171b46U, 0x3e21b9753d814113U,
  0x3c93b6dfbbb66cd2U, 0xbd96ce0dbdf88414U, 0xbe01b5e93dfa17d9U, 0x3db2ee76bdb51f81U,
  0x3e167a3e3dde0f22U, 0x3db816dd3dfb668eU, 0xbe004ae43e02a0c9U, 0x3e155cdf3d97b0cbU,
  0xbd88fd893e177f57U, 0x3d8604783d0b3a50U, 0xbde086853c89ba4cU, 0x3d034c8bbc96e52dU,
  0xbd456a2cbd75ffdfU, 0xbd82d4d23da6e8bcU, 0x3cb615b8be15ee10U, 0x3d27c4f23bcca64bU,
  0x3d3dc1eb3dcaf90aU, 0x3d13fcdebcc7981eU, 0xbce06c5cbd6d6c85U, 0x3c5734433d61c094U,
  0x3e1c353a3e2480b4U, 0x3e23296ebcfdce0aU, 0x3d0bc5743c955db7U, 0x3c93dab7bd15889fU,
  0x3e06f483be0dbdceU, 0x3dcc7102be0402f3U, 0xbcd4c371bd25ed10U, 0x3cea96283bce045aU,
  0xbcbaa00f3e1c8ba5U, 0xbd7dd0f13d385deaU, 0x3e0b13b73d3d6264U, 0x3e088e7cbd3297b9U,
  0x3c6974e1bde1c844U, 0x3ddb99993d75f703U, 0xbd96b2813df70a65U, 0xbca912c1bd32d038U,
  0x3cc642adbdbc634aU, 0x3dc7353ebdeae81cU, 0x3ce1693c3da7b28dU, 0x3dcbc958bde43b94U,
  0x3d650aed3d468dd3U, 0xbd1394dcbd169387U, 0x3de1b8a73dbf1d30U, 0x3a8f0c1f3dec6373U,
  0x3e233a0f3e0c1f3cU, 0xbd4e81053dc17f05U, 0xbdf17fdebd9887fbU, 0xbde8643bbdf8fb1aU,
  0x3cd500b43da5f1aaU, 0xbb8684c8bdce5cc9U, 0x3ba2e9db3e0a0006U, 0x3c2df4e5bb8050f6U,
  0x3d3b0996bd48f016U, 0x3e144c913e04aab9U, 0x3dd28e03bd006c7cU, 0xbdc5334dbdea382fU,
  0x3c8cbd723d4cc713U, 0x3e072c25bd9dcbe6U, 0x3d059b24bdc3069eU, 0x3daf09353cb95b6aU,
  0xbd933b60bc52e628U, 0x3d57b75c3d96811eU, 0xbdc844533d2e36a0U, 0xbd58f0c0bc33308dU,
  0x3d874be5bdd0ea58U, 0x3ce114acbdfd20ccU, 0x3dcf084e3cfa054bU, 0x3d433cdebbc16b45U,
  0x3d07740abdd9253aU, 0xbcc94e01bd3158dcU, 0xbd84f473bd3c18ebU, 0xbdeba145bdc1f44eU,
  0x3dd237853ca1c6e6U, 0x3d9bdbbfbe05c14dU, 0x3d9acbf63d046833U, 0x3d8930d83c030d9dU,
  0x3d3ef4acbdb3e97cU, 0x3bb4c8363d3f9274U, 0xbd987d31bd18e507U, 0x3da64cfebd6d5210U,
  0xbdc1c73a3d95b1d4U, 0xbcb3651ebd112a08U, 0x3d753636be1303f4U, 0x3e0446613ce03971U,
  0x3e028cea3d80f1b3U, 0x3e10a835bd51c723U, 0xbe089545bd8c0c94U, 0x3e02d763bd33763cU,
  0x3dade6a1bd2f5d49U, 0x3dd12e0dbd1406aaU, 0xbdc24bdfbe00cfe6U, 0x3d318d5cbd2a6193U,
  0x3dc1e5bbbd580b3dU, 0x3c33a3c53cf000a0U, 0xbd1fdad3bd405ca2U, 0xbcafcc653ccdfd62U,
  0xbe050b64bdf6b39dU, 0x3e0dfaddbe10dba2U, 0x3d01913bbcab7b81U, 0xbe116da83d572a85U,
  0x3da94c113d1a4238U, 0xbcea9c8b3d6da812U, 0xbbda988dbc974e8cU, 0x3df9404fbd882a64U,
  0xbdd7cc44be2760d5U, 0x3e0e44d0bdf1dca8U, 0x3df22d3ebdfe3f33U, 0xbdfc21233d2a6c2dU,
  0x3ba04e8c3d78b169U, 0xbdba7d4bbda282cdU, 0x3db8fcf5be1915dbU, 0xbbf76b1ebd937ab7U,
  0xbd3e6c9bbd79a158U, 0xbd2dea71bd70d5cfU, 0x3da1b321bcfa31daU, 0x3d06e8e63c95f8edU,
  0x3d9d1f22bb661e39U, 0x3d8468903ba67f1cU, 0x3c2c1d7fbdc711d2U, 0x3d85da01bd189784U,
  0xbbe786963e043f50U, 0xbc9fbd64bde67d12U, 0xbde158323c4a6f4fU, 0x3e190f00bd6e258fU,
  0xbc8f39493dae466aU, 0xbe011f26bc8cebf9U, 0xbd4f20df3daad7f4U, 0xbd18116b3e0f93aaU,
  0xbd0b4decbc531f47U, 0x3d36a1293dac7b80U, 0xbd23587b3dce1c40U, 0xbdb878f6bd91744aU,
  0x3d5576643df765c8U, 0xbd9e04e3ba8cfaa6U, 0xbdf0104fbd303a32U, 0x3bf5bb093daff481U,
  0xbdcc963fbac7b450U, 0x3d4ef45ebddc45d5U, 0xbe038a173d69fbf9U, 0xbd7f3bd13cd7917cU,
  0x3de9b7903d5a0fc6U, 0xbd4efe44bced7d8fU, 0xbd56770f3dd278f4U, 0x3d90cd57bd226ff0U,
  0xbdab276bbd779ebcU, 0x3c994a5ebda0356eU, 0xbdb8a124bc9ed4b0U, 0xbdcd089b3dd7f607U,
  0x3de3d3e7bdd66eb8U, 0x3e134fd73cf89726U, 0xbdeff8a13b1c89a2U, 0x3e0640a2bde4ef56U,
  0xbda0aa043d4cfd4fU, 0x3c83e99bbc626654U, 0x3de5f5a43dcb0a57U, 0xbc04e53cbc599300U,
  0x3dd96f5dbc5fcde9U, 0xbde8dbd73d0c5adeU, 0xbb54094cbd7360c0U, 0xbd485acabd006b26U,
  0x3d9d7c44bc6a82ddU, 0x3da513743e13785bU, 0x3cb4aed63df3d8b7U, 0xbda27239be0b635dU,
  0x3df561f83deef3d7U, 0xbd98d91a3d7c5918U, 0x3da4064a3d96ad77U, 0x3e15ae7fbd0d5a7dU,
  0x3e0f06fe3c0786daU, 0x3cc76561bda04326U, 0xbd3e9b193d865548U, 0xbdedfc9c3d9ebc40U,
  0xbe16828f3de0836bU, 0xbbc438cc3e05a9ceU, 0x3c981e13bd0a36a4U, 0xbe1458b83e18eea0U,
  0xbdda80be3c8f25b6U, 0xbd8f251f3de6ac1fU, 0x3dbb8319bcea3497U, 0x3d773abb3b8fd579U,
  0x3e0995cbbd899daeU, 0xbd400ae8bbcacf68U, 0x3dbb0c7dbdba9a57U, 0xbd1e010cbd978e32U,
  0x3dda5c5ebdb8dddcU, 0x3d3eaf4dbe016efdU, 0x3e14d6ae3d8d31e7U, 0x3de5a9643d1a448bU,
  0x3d7c157e3df3fc23U, 0x3cfb21ef3de7e702U, 0x3e078b93bc658b3fU, 0x3d54e06d3de8c506U,
  0x3ca0facebd63f7f2U, 0x3cd0f202bdf179a9U, 0x3d88185dbb9bc8a2U, 0xbd6faa683e0b23e1U,
  0x3c4954633d49e9c7U, 0x3de04c8ebdd4469cU, 0x3d862b56be11306eU, 0x3e0b8eb73d77f88aU,
  0xbd3ff14fbe0e2d54U, 0xbdbc83a23c069109U, 0x3d26c93fbbcae4c9U, 0x3de577753d83c57cU,
  0xbdc511503d9b2554U, 0xbd4fc02bbcebf892U, 0x3ddf75a03dcb6f48U, 0xbc87c0e53d1c214fU,
  0xbcbaae64be165f6bU, 0xbdbb00b43e0020ceU, 0x3cb1d1a13e0123c2U, 0x3b9655cebdd1db87U,
  0x3d887e7e3d265a7cU, 0x3d611431bbf86b8aU, 0xbdc4c4b63def607eU, 0xbd8d9f15bdd24a12U,
  0x3d3957e7bd350efbU, 0x3d88f495bdb555a9U, 0x3db480acbdd691d0U, 0x3d3088323df9bac8U,
  0xbd8be8f53caf2892U, 0x3d8dd9d1be022203U, 0x3c58f8d93c719210U, 0x3ca17f9c3de048b9U,
  0x3daeb05cbdc29459U, 0x3d879c0bbe016732U, 0xbdfe50333df559d2U, 0x3e1f8534bde34df2U,
  0xbd31c839bca636cbU, 0xbdbb5aa73dc31f24U, 0xba51baac3da2e914U, 0x3de56af03df2269eU,
  0x3de9c672bdd087f7U, 0x3d1764143d2e85fdU, 0x3cf5e7663db1a579U, 0x3b9a623b3dfe40f2U,
  0xbd0554e3bdeda70aU, 0x3dfdc5793db16f9eU, 0xbe03d76cbdfa3640U, 0xbd8e9bd3be0aebd8U,
  0xbb1f67233dafb2aeU, 0x3d1c32d9be124b0aU, 0xbc4c1306bde2fb2fU, 0x3cbe0db63dbdba73U,
  0x3ddc35c4bc09442cU, 0xbe20b1583e05be60U, 0x3dd332b9bd39023cU, 0xbd417dfbbdbe929eU,
  0x3e016f48bdf92379U, 0x3dfb99603d86c0b4U, 0x3d9cc3033d9f0edfU, 0x3d314b803dd1f0e9U,
  0xbd17d5d3bdaf7f0dU, 0x3d85b613bd27f557U, 0x3da58aa73c5e77a4U, 0xbdd77b3cbd428320U,
  0xbdf4ab3ebd949393U, 0x3d00820bbd4ede19U, 0x3dcce243bd8b8b11U, 0xbd6ca3743c9a1919U,
  0xbcb59d2a39ecca09U, 0x3dd398513d883b77U, 0x3d924e043dbd11edU, 0xbc96d440bccb9a2eU,
  0x3e07ed833dd57264U, 0xbdb0ec07be1f6814U, 0x3b923a8abd8e514aU, 0xbdfc5a85bdf890eeU,
  0xbd93a728be0015f4U, 0xbd914bf13d2e65a8U, 0x3d1e1c363d5c536aU, 0xbc42b3313c8576b5U,
  0xbe2e22a93d5374cdU, 0xbdd074053d05ad57U, 0x3bbde0423ccfc31cU, 0xbcc1b00cbddee632U,
  0xbd99306d3d812a32U, 0xbe0809d13d9f2fd7U, 0x3bc572803e1ba9fbU, 0xbb4331e7be0f3543U,
  0x3d48eac0bd558cd7U, 0x3d961c16be23d084U, 0xbdfcd81cbc984f98U, 0x3e0ec7653dac7b2dU,
  0x3dc649853d395dbcU, 0x3d58e991bdc6d5abU, 0x3e03a669be28521fU, 0xbd944a81bdb462a6U,
  0x3dcf4d263b8f84e9U, 0xbc3cacb0be28a3e2U, 0x3dd1a0b83ddef5b6U, 0x3e06d4a03d930c71U,
  0xbc8a5606bcf955b6U, 0xbd5e1ad7bdb11838U, 0xbd0ff2c73ae01766U, 0xbcf4e1bebd7fd577U,
  0xbda0444c3de711f1U, 0xbe1e3631be2ec30fU, 0x3d828f71bd3bfd42U, 0x3c1a37c6bda9ab3aU,
  0x3e11485a3d0e8c5dU, 0x3d439c573c94a393U, 0x3de254e63d8f49ebU, 0x3dd745183cd79b23U,
  0xbddc742a3b876430U, 0xbceb42413e06455bU, 0x3defe3c23daaee41U, 0xbd32eccbbbda9d24U,
  0x3c35095b3dc7b31fU, 0x3c927d103d98cc28U, 0x3db4ba8abe166196U, 0xbd839a89be05c749U,
  0x3dab8602bdcbfe36U, 0xbe005fd3bdee4848U, 0x3c77f2b9bcfada20U, 0x3d9626a7bde90225U,
  0xbe2fca0d3da26f17U, 0xbd30ec1f3d9b9883U, 0xbdf0b9dd3dcad7b8U, 0x3da1a3d73c446b2aU,
  0x3e1a45953cc4b46cU, 0xbc9e4dc23d917366U, 0xbd160caf3db2c067U, 0xbd816c64be038420U,
  0xbe1df5afbe1497a8U, 0xbd098aacbd339d80U, 0xbd8518acbd8f32d4U, 0x3d428ca23cd96a4eU,
  0x3dd0c55d3d4581eaU, 0xbdf279843cba6c0dU, 0x3dd434083e2bbcb1U, 0x3c7ec8e83e1947e6U,
  0xbda233163d83017eU, 0xbc4cd5993dff60c6U, 0x3dea203e3d265529U, 0x3d396743bd9de4b2U,
  0xbccdfd9e3cdba7b2U, 0x3cbf0ca73c039586U, 0xbda72a0a3dbda608U, 0xbdfa0dfabdabc2bfU,
  0x3dbb71dabe1498a9U, 0xbe039d053d0d4fedU, 0xbcb907243d49dd3eU, 0x3d74b9a9bd093357U,
  0xbc9cb3523e1feecaU, 0x3da208733cd5ef77U, 0xbd0d4e023d5a357aU, 0xbdde5dcb3e209823U,
  0xbe03a7aa3a9b5cccU, 0x3cf7ce8fbc403cfaU, 0xbde27553bd4b3309U, 0x3d914dc43d8f4241U,
  0xbd928929bcff7817U, 0x3e07bba13ded85afU, 0x3db11ee63d137c2cU, 0x3e0915d73da0ff37U,
  0xbda15031bcfe7e32U, 0xbb4fbf2c3d25a039U, 0x3d9897d53e0b742fU, 0x3d73998e3d4b0f2cU,
  0xbe17fce93d487784U, 0xbd48ed60bdf16ff7U, 0xbdbecc07bda49f15U, 0xbcc91f8ebdd8e8d3U,
  0x3dedce24bd3e7a5eU, 0xbdb397d8bd4afd48U, 0xbd3d405b3de066d1U, 0x3e17b1183c1c8a54U,
  0xbdde2c7f3b80118eU, 0x3e19dc41bdd8a579U, 0x3dce204e3c8a1b43U, 0xbd87067a3d8d5b8aU,
  0x3caefccc3d12fb40U, 0x3e28736bbe01c40dU, 0xbdcbb4dcbdbf5605U, 0xbdc601f0bbabcffeU,
  0xbcc308c1bdd0b2d0U, 0xbdffa0d8bd71f427U, 0x3e1135adbde2cdb6U, 0x3df1390f3c236dc8U,
  0xbd8ed366bcba0371U, 0x3dd472cb3db2e5dfU, 0xbd33beafbe161571U, 0x3e0d0da0bc2ed5f3U,
  0x3d8e74fc3dd2864dU, 0x3dda292ebb7deee2U, 0x3d12aa503d725630U, 0x3d964b173d2b5429U,
  0x3ced37f13cd82a40U, 0x3dcf6d723e21fc33U, 0x3e0d67a33c2cbe0dU, 0xbd85ab423db64d70U,
  0xbd875288bc4b9685U, 0x3da5297a38e9ebc4U, 0x3d7b91c23e15bec9U, 0x3de29e793d2606dfU,
  0x3d873bd93e048bb0U, 0x3d9792f33d97a30eU, 0x3d063ff43d1445e7U, 0x3e2b2953bde0b1dbU,
  0xbdb8f0fdbd1c6ba3U, 0xbc9a959fbe00ff03U, 0xbdff1388bd5952cdU, 0xbe1c0ce13da3b736U,
  0xbdc6e4bbbd012d9dU, 0xbcb907d53d6c46feU, 0xbdcba6adbd4522e2U, 0x3d3cb4dabdd1871fU,
  0xbb3d99bcbd141f23U, 0x3d92de5d3ce5ef49U, 0x3db400b03e13935bU, 0x3dc15ef43db3db8bU,
  0xbd9bde46bd4ea622U, 0xbde17ebc3dcbfe1eU, 0x3d4d2a883dabab31U, 0xbe2076c3bd3817e3U,
  0x3df54ad33d1bb8dcU, 0x3df590463e1d5d51U, 0xbe087ba03e0c40f0U, 0xbdac0092bdbad99dU,
  0xbd2dc5c9bda7d7cdU, 0x3ca26ccfbb9e9046U, 0x3dce3a5dbdb8bc2fU, 0x3ddf7120bc75ed63U,
  0x3ddabba93ded2831U, 0xbd9e9bab3dc70c1fU, 0x3da86bdfbc80b45fU, 0x3d61aac93e237876U,
  0x3d11ed223e030908U, 0x3dbbef5abd62cc80U, 0x3e03ec2e3d5e34ccU, 0xbd2a663d3be5ec76U,
  0x3ccd1a12bd27d07cU, 0xbe1933db3dfd897eU, 0x3d9a7d633d617416U, 0xbd9d2dc3bc8de585U,
  0xbd93f7b8be03e747U, 0xbd217eb23d2422c7U, 0xbdd3acdc3da08a07U, 0xbd1989363db297bbU,
  0xbdddeff03de48205U, 0x3deddbcb3c00eaf3U, 0x3d014eedbb899fe7U, 0x3d8d0f2e3dec4088U,
  0xbdcaaedebdc29032U, 0x3c24b8d93c8d79eeU, 0xbd8396fc3cd74290U, 0xbd27a57e3e0340d5U,
  0xbdb96bd3bdc23c9bU, 0x3c90a7d03d598953U, 0x3cbc51363dca47ecU, 0xbe21f4e83daf8b48U,
  0xbc6e17c9bd27f7ebU, 0xbdbb3c68bde3ec52U, 0xbc72f3d33d03b024U, 0xbcb514ae3d8d91f0U,
  0x3e0534443e0bc39bU, 0xbd9ac58c3deea68eU, 0xbd3b7583bd636058U, 0x3d3a533f3de25dd8U,
  0xbe27f34fbcee1f82U, 0xbdbd5c0b3df16af3U, 0xbd80889cbe0983bfU, 0x3ca41931be07abb6U,
  0x3dc656373d9e1177U, 0xbd952eea3dda5b82U, 0x3d4b944b3e08f5afU, 0xbce8d8d73df95e40U,
  0x3dc5b4cbbe095bfaU, 0x3df8195c3d2657a5U, 0x3c555e71bcda2f7bU, 0xbd2597eb3e06c598U,
  0xbd559b6ebd58ce21U, 0xbd51ba71bdf64c76U, 0x3d835776bde72ef6U, 0xbde05a9f3dc3e30bU,
  0x3c02e520bd3399ccU, 0xbdb820f5bd221b52U, 0x3c8cf4843e0f3b9aU, 0xbda1cb113d2e1e34U,
  0x3d96870cbdc2aa75U, 0xbcab88443e07b829U, 0xbdafc8203dca34dcU, 0x3d8c0f883d5f5c83U,
  0x3dc61f0d3ad3e52eU, 0x3ddb59763dc9acf7U, 0xbd894d07bdb98a4fU, 0xbda92e0b3d8a56b4U,
  0x3e08c6c8be0bb1e9U, 0x3dbab298bddf47e2U, 0xbe097229bd4f2f01U, 0x3d8c5e283e203b00U,
  0xbe111c4a3de86390U, 0x3d281fb9bcae3adaU, 0xbd262a2bbd07af2aU, 0x3d9dddb03c0186daU,
  0xbd6099aa3de5f62cU, 0xbd45cfbbbda3c90cU, 0x3dff7c103dbb9860U, 0x3d553b3e3d0df599U,
  0x3dc25c8ebd32b58aU, 0x3db333b7bda11195U, 0x3d42f9c0bd980110U, 0xbd61659a3de9eb33U,
  0xbd855adebd9c7cc1U, 0xbbdb84ecbd981765U, 0x3c7c3abcbd2c9b42U, 0x3e0aedccbdba272bU,
  0xbc8df64fbd112e44U, 0x3c826f123d1b78b0U, 0x3d9400b5bd258866U, 0x3dd929d33dcb2377U,
  0xbce54f16bdc22da6U, 0x3dac073f3d58d9e5U, 0x3d8532153d7baf91U, 0xbd7723a7bda67d26U,
  0x3d4f0ea7bd924c4dU, 0x3d9a919abd8c4a87U, 0xbd9944f93da8edc5U, 0x3d7a5b3abcab962eU,
  0x3d194b44bd49495fU, 0x3e0850c53df5ce7aU, 0xbdb85023bccb3d16U, 0xbd8e7f0e3de10de9U,
  0x3da9fbad3d388332U, 0xbde62e6c39cf5f80U, 0xbd9f5b7d3deb2869U, 0x3e25d70cbdb48e6eU,
  0x3d577cb53e14be0eU, 0xbcf623f5be05352bU, 0x3e1cce623d8ddabdU, 0x3dc924eb3dd3db9aU,
  0xbd40c92b3d231f40U, 0x3cc5cd46bd9767ffU, 0x3d77ec7c3e301c5aU, 0xbe062cfb3d8b227fU,
  0x3dbfd00a3db26de7U, 0x3ccef6dd3d8488e3U, 0x3e085c74bdba3f7eU, 0x3dc0c935bd72941fU,
  0x3d703e23bd3649b3U, 0x3d82c87d3d62dc53U, 0x3a117475bc4fdbaaU, 0x3d20369bbe17cd3dU,
  0x3db266bbbdcdfe32U, 0xbdc9106fbd6f1c58U, 0x3ce3ce023df8400eU, 0xbd755dd03d81b111U,
  0xbcaa1f8dbd658f42U, 0x3deba3e9bceefbf7U, 0xbceed8e83d5a228aU, 0x3d9e318a3df4fbc1U,
  0xbd2056a03d9437cbU, 0x3d4cc4bfbdc65189U, 0xbd1b0cd23cfda66bU, 0xbdcd1282bd1b20c7U,
  0xbd33bc1abcc4ab49U, 0xbe0dbd8c3cc5ae40U, 0xbd411868bdcdebebU, 0x3d84a7f93dfd650cU,
  0x3db4404fbe0ed35eU, 0xbe16ccc63df6723aU, 0x3dc6088f3dfa3529U, 0x3de5da7fbc10fb5cU,
  0xbdafffc4be0f2427U, 0xbd5ff42d3d36c2c0U, 0xbd9b3f1d3dc19e06U, 0xbc987e4dbe04c5efU,
  0xbc8dd4febc18f2d4U, 0x3d305e36bdd7bfa6U, 0xbd686d913da53d8aU, 0x3df5fb083e209ab9U,
  0xbd8d65fdbe05a55eU, 0x3de41c0cbda0d95dU, 0x3e01201cbde3cb71U, 0x3de362803d2b3ad7U,
  0x3d01ab533d1e08d2U, 0x3cc18499be004f9bU, 0x3d0815adbdae15f9U, 0x3c37e3f4bd6122d9U,
  0xbd44dc72be176571U, 0xbcd1e7fe3da44f10U, 0x3d3c67a6be1fd6b8U, 0xbda0e871bd7055feU,
  0x3d21e6613e12a02dU, 0x3deb59b4be033671U, 0x3de29fc2bdd35ac7U, 0xbdac4d16bd8486daU,
  0xbe0ddffabdd715bcU, 0x3c662b293de943d4U, 0x3d2e06a23dab2fa5U, 0x3ddb8ddf3e046c67U,
  0x3d8252893d92fdc0U, 0xbd9caebd3dbed9d6U, 0xbd707bbcbdc9d843U, 0x3da42ef7bdacf0dcU,
  0x3d3bc10cbd7f8dd1U, 0xbd083c773ab5b89fU, 0xbd0ebb4abd76b8a4U, 0x3d4b76e4bd146938U,
  0x3d33f1d33da68ed1U, 0xbe0fdd55bde9cb78U, 0xbcfe3c3c3d86d2f8U, 0x3e244acabafda44dU,
  0x3ca0dd73bd38a1cdU, 0x3e09130bbdfebabaU, 0x3dd84d563e2c1dc3U, 0xbde0f4bfbdd24d4fU,
  0x3e32bfec3da60d5aU, 0x3dcb1d65bb50a49eU, 0xbcb175db3dd580c8U, 0xbd83235f3df3e208U,
  0x3daf68bebd538df8U, 0x3dd9d359bd0af6a0U, 0xbdf56e13be0ed3c8U, 0xbd0b43983d3b7731U,
  0xbd9d75ae3e014fddU, 0x3de0f875be055664U, 0xbd521a4a3df82aa9U, 0x3c6278213d617c71U,
  0xbdd754cf3c803324U, 0xbc4a8f7f3df396fdU, 0x3da849933d0be118U, 0xbce730e9bd3a757eU,
  0xbc5de060bd9b8e6cU, 0xbdeb395d3e15ca33U, 0xbd23fa023e0d6898U, 0xbd80cdf13e0d6404U,
  0xbdcc178abd619cafU, 0x3cec429b3bfcde77U, 0x3d06724e3ddd58b6U, 0x3d78d1d0bdc44b58U,
  0x3d40b4fdbd3499edU, 0xbc20a3bbbda8b1daU, 0x3cdb9ea0bd8a6522U, 0x3d29bbab3dbb5e91U,
  0xbdc7eaf1bd9f116bU, 0xbde18bc33b86042bU, 0xbda54778bd70b40dU, 0xbddd7d1f3da9dc7cU,
  0x3e322bacbdab4af9U, 0xbe1ab5b53db992f5U, 0x3dc68d1b3e1e0176U, 0x3dbff802bb44ad7dU,
  0x3d93fbcbbe1fa09cU, 0xbe0025823e029953U, 0x3d7f34b63c511ebaU, 0x3e133a8e3dca758cU,
  0x3dd46a3dbd085533U, 0x3def46c5be174385U, 0xbcbd7276bcaf022bU, 0x3e1bd68ebc70c373U,
  0x3dbd3628bd039743U, 0x3dfa8b33bdc0307cU, 0xbdadaa413cf603b5U, 0xbe098a7dbc3ad21fU,
  0x3d76e853bd1b742dU, 0xbd667e4bbdb3a78bU, 0xbdbc41c2bbe9f25fU, 0x3e1ab3f43ccf37f5U,
  0xbcab852a3cdeb645U, 0xbd64a2d1be00aef9U, 0x3dcc6ffd3df28aa1U, 0x3e2cf6c4bdad343dU,
  0x3e1dc1403e1f8fc8U, 0xbe11a677be186029U, 0x3df1516f3dfb02e6U, 0x3df4b86d3e0c7b50U,
  0xbcb685e03d326978U, 0x3ddc8001be123f6cU, 0xbce1f1adbc750fd1U, 0x3dd98b8e3d1f1275U,
  0x3df3e321bde9e7e0U, 0x3d7d85363e17d5f9U, 0xbcb71b89bc361daaU, 0x3e2bf1253dac611aU,
  0x3da51d82bdaa77a5U, 0xbccb2481be13327fU, 0xbca1cdbfbc034f8aU, 0xbc2081ddbde7ff76U,
  0x3e0715e03ce64954U, 0x3def5594bdd8cb7eU, 0x3deb5c78bb1ef99dU, 0xbdec90f2bd926f20U,
  0x3d8c4c153db08500U, 0x3e1680b3bd8ab74dU, 0x3d7b2c8fbb3f952eU, 0x3db20a5fbc3675e5U,
  0x3d0d2b583d85170cU, 0xbe0462e1bd969834U, 0xbd091884bda1c435U, 0xbd8b64f439dbcdafU,
  0xbdc6d85bbc845b83U, 0xbd4e160a3dbb3c05U, 0x3c8dfa36bd9a9a09U, 0xbe195fdfbc4b44ebU,
  0x3daa07013dd14659U, 0xbdbb05503e000e5eU, 0x3d0c28193e0311eeU, 0xbd467404bc90f72cU,
  0x3cc4340c3d4ce01fU, 0xbcd90869bd65142eU, 0xbd8001e9bdd51754U, 0x3d740eb43d85312fU,
  0xbd9b2b2fbe0983e9U, 0xbe1a8c33be07293eU, 0xbd6d154cbd4d8e96U, 0x3a584a3d3dbfbcf3U,
  0x3dea3d89bd415f78U, 0x3e016ddd3dc58d3dU, 0xbd33ad8ebcca4f0dU, 0x3d881a46bd99885aU,
  0x3d9f6040bcdcb3f8U, 0xbe1520b53d9a7cf6U, 0xbdbf05ab3cb77ab3U, 0xbd94454f3c85ef91U,
  0xbd97ea87be05138aU, 0xbd9f0238bdf226a5U, 0xbaa70e253d9dadd8U, 0x3d41222a3d088707U,
  0xbe04319ebdfb39bfU, 0x3ddf94d33dd02713U, 0xbd9789a0be0c7fc2U, 0xbdc346edbdae926eU,
  0x3c941ed7bd93fe20U, 0x3d4dfa203db23c03U, 0xbcf4b9fe3dbf34d8U, 0x3d8720423c691f81U,
  0xbe1a13503df13672U, 0xbde61baabcdb47adU, 0x3d933050bd89c09cU, 0xbdff1c0b3dec8ff6U,
  0x3c8a6ac8bc70fea1U, 0x3d1c14693c9fc997U, 0xbded0a9abd9b4b6aU, 0xbd460597bd65142eU,
  0x3d75a13ebde5d75cU, 0xbb738dfd3de7cd00U, 0x3e2425cabd8fabe6U, 0xbd054f163d863ad9U,
  0x3dcf0a543dd08984U, 0xbd6925093d6a1cceU, 0xbd084638bd90ebb1U, 0x3d930567bddebd6fU,
  0x3dba19cf3c725687U, 0x3da3d3623e2474d0U, 0xbdf480adbb64a98dU, 0x3d5351353cfe86bcU,
  0x3d8035c9bd8413d6U, 0x3d7892aebe026ff9U, 0xbc548e49bdec4febU, 0xbda704aebd183a19U,
  0xbd25dbc23d3aca8cU, 0xbdd01b5b3d829604U, 0xbd241613bdf6a75fU, 0xbdbfc3303ab80b53U,
  0xbd4cb5403e13cb31U, 0xbe084a3dbdc36ed6U, 0x3d05c2003d9c4fd6U, 0xbd6311693dda3ed9U,
  0x3dc7fffa3d7de87dU, 0xbbb34f813d7fd284U, 0xbd87780cbdf1796bU, 0xbe1602a7bc11502bU,
  0x3e1b6e60bc20443dU, 0x3d1c29fc3d8d5468U, 0x3de7a0e53d173d69U, 0x3e0afa9d3dc53a6aU,
  0x3d0a45debdbdcf73U, 0xbdcaf504ba6e11d9U, 0xbd391514be138f64U, 0x3e007f7f3df7f1d5U,
  0x3dd91abf3a009f28U, 0xbc971ca93e2cebe6U, 0xbe23094fbde589a0U, 0xbdc58f7d3e096767U,
  0x3cdbdf26bd92815bU, 0x3e0d98443e225e71U, 0xbd8d6bb23da0ff14U, 0xbd21bf333ded2e90U,
  0xbd2f64a03e0d5080U, 0xbdb79f4c3dc263e8U, 0x3da748ccbc7147cbU, 0x3d29d5b03d1fc2dfU,
  0xbdc15bdf3db23555U, 0x3daa34543ddc5449U, 0xbd0d7227bc99f87dU, 0xbda403ca3b9c9975U,
  0xbd5a18ccbdc21fefU, 0x3c7ac2433c832016U, 0x3cfcc57ebdb5de5bU, 0xbd8b660e3dbc944aU,
  0x3dac14543ca7345eU, 0xbd099cd43db60812U, 0xbde392393d9d7bc1U, 0xbdfce5edbdbf580cU,
  0xbdc2ab523d09ee0cU, 0xbd2143c4bdb64a1bU, 0xbd1d6864bb9ea8f6U, 0x3e04cb2dbde8d910U,
  0xbce4d3f43d6ad3aaU, 0x3dc25f723dbd940aU, 0x3d5195033ceac84fU, 0x3d66fce8bd947032U,
  0x3d3c7870bde2ec3fU, 0x3ca2f8f2bdadb060U, 0xbd98cd7fbe1be1e3U, 0xbc9ba169be1143dcU,
  0x3dd2df15bdcfec87U, 0xbd1378f33d735aa3U, 0xbd80088abd4c82d3U, 0x3db1657abc289a7bU,
  0xbe01707d3bf3ca61U, 0xbda17956bddbcfdaU, 0xbc1bd319bdd80fa9U, 0x3d3082433d8c3ecfU,
  0xbdbcf7b2bddd84e9U, 0xbda96640bde50a7eU, 0xbdf18b73bd8b9842U, 0x3db6684f3d83df30U,
  0x3d9997c1bc52da8eU, 0x3d5e80143dadf7d0U, 0x3dc8ea193dad751cU, 0x3d4532f1bd946adbU,
  0xbdb1adc33cecceb3U, 0x3df298d9bc8bf7cbU, 0x3da6203cbd7c92d9U, 0xbd4015803cbc8878U,
  0xbdfe334d3d7e4e35U, 0xbbf0b59cbdec4de1U, 0x3b80abcebd5ef1feU, 0x3dcdb6943d2c5d02U,
  0xbdde993bbdb2c067U, 0x3d827f6e3db5cd0aU, 0xbd79e64abda3771aU, 0xbdef54a53cd1d496U,
  0xbe025feb3e09768dU, 0xbdbc44993dfb907bU, 0xbd5f0f193ccaa34cU, 0xbcfff65cbd9be480U,
  0x3de72d96bda1db47U, 0xbae9b1e9bde87f24U, 0xbd2c15c2bdba2e6fU, 0x3dd5e944bd33b33fU,
  0x3ca2ab70bcf9aad7U, 0xbd318c09bdfb080aU, 0x3ccfc773bd13003bU, 0x3df780cebd524328U,
  0x3d4032203db501e7U, 0xbd83641fbdbfd343U, 0x3cdbce1abd1314e4U, 0x3cc8c78e3bfd7e49U,
  0xbdbc067f3db1d885U, 0xbdfac3b5be01a423U, 0xbdf9c4cdbc78b527U, 0x3de421d33c93eceeU,
  0xbd263f2d3e03396fU, 0x3cbd81b33db16a84U, 0x3dafae7cbdd9fbe5U, 0xbe14fbc03d849b80U,
  0xbd9a8823bd138a0cU, 0xbbee577fbe09a417U, 0x3bf2f5d3bdb0b9a6U, 0x3df677563d4ce6f1U,
  0xbcd923f7bd9ae62bU, 0x3dfea3483d7689b7U, 0xbd34dc603ae6838dU, 0x3d4788313dedb6feU,
  0x3dff91153e067c43U, 0xbd6d1eb03e04480bU, 0xbd30b6173dc27bdfU, 0x3db2b0c0bc3022d6U,
  0xbdcc3f8a3df1f9e9U, 0x3d8caff9bdf0ad1dU, 0x3e127a91bdb6d6ffU, 0x3decf1a539acb0c0U,
  0xbceae367bda63909U, 0xbe1322c23db3d5acU, 0xbc9109fe3dec413eU, 0xbdb5f4e43d60d4e2U,
  0xbdc22452bc843034U, 0x3db5c2123db90af0U, 0x3d012ec6bc16f3ccU, 0x3d1bcb4dbcfb053bU,
  0xbb8ceb14bdbbf635U, 0xbd9c27f8bd9690cdU, 0xbd66bbeabdaf2254U, 0x3d007b5bbdaf906aU,
  0x3e08a104bd9a0979U, 0x3c1b37ec3d8e3da5U, 0x3d4bf79cbd8b1489U, 0x3cde09ccbc84a144U,
  0xbd6f05f2bbcd73d2U, 0x3cb5163cbc8118d8U, 0x3c83a867bd5e05a9U, 0xbd5c54f33e0d37c4U,
  0x3e05b2193d0ba621U, 0xbdd1d9243de4630fU, 0x3c238a283ce66acaU, 0x3dd4eff9bd966421U,
  0x3d51e146bdd96394U, 0x3ceb54ec3d2324d4U, 0xbc85416dbcecb7e6U, 0x3e041487bcfc62a4U,
  0xbc74283ebd0b1b1bU, 0xbdb58ef13ddf59aaU, 0xba8eb6d03e0e370aU, 0xbd08ffa8bd8fb8a3U,
  0x3cc937cbbe10cf79U, 0x3d85ffb93e02f169U, 0x3dfb600a3d8a7618U, 0x3d6e080fbdaef1dfU,
  0x3dd40e533dc4b0f4U, 0x3d14acd13c050cccU, 0x3d918de0bc9526aaU, 0xbe16b517be10da93U,
  0xbd04bbc2bdc25a3aU, 0xbe1617163e015331U, 0x3d8610e73d079836U, 0xbd883830bd6e19e9U,
  0xbcc9af89bcbc98a2U, 0xbd716e04bddd748bU, 0x3cda7d7d3d3718f7U, 0x3d7b20dc3da9e7d9U,
  0x3da0d55c3ddb3b86U, 0xbccd89d3bb8aa9d6U, 0xbdb4ae543dffab3cU, 0xbd04db063de29ac2U,
  0x3e050cb3bcd380a1U, 0xbddc733dbde87551U, 0x3e14c202bd1778bbU, 0xbe083ae2b8442296U,
  0xbcd19e63bcf1ea29U, 0xba1f0c85bdbd0a0cU, 0x3d4e1817bc882dddU, 0x3d5b14a5bb31dbe9U,
  0xbce843ebbc2b3ef9U, 0xbd8d3ab53ab2f767U, 0x3caf99b6bd74ba26U, 0xbcb176673deabe48U,
  0xbdf71ac1bc8ea4faU, 0x3baa68ee3dae81caU, 0xbdba37ccbc02bdc0U, 0xbdd632ea3da773c0U,
  0x3e282bebbc542fa9U, 0x3c32ef2a3d188e34U, 0xbda21be83ba69738U, 0xbde0cfe3bdc3204aU,
  0x3d49b75abd9fc12dU, 0xbdcf1cd9bd74a5d4U, 0x3e00996ebcd84fb2U, 0xbb34ab76bdb9287aU,
  0x3cffeb213e1e2508U, 0x3d18bb023e010468U, 0x3c949d933dea073dU, 0x3dd5bbc13db19f9dU,
  0xbc6f864b3dfc5102U, 0x3e134b48bc1378f9U, 0x3e0236bf3c8271c6U, 0x3bc390d93e0eee86U,
  0x3db54e42bd96bc74U, 0xbd9f95ab3cb9779fU, 0xba8eea863e27e57aU, 0x3c1af231bd4b45f3U,
  0x3e02df0b3de58876U, 0x3dd385523de52dccU, 0xbc040ad7bd372cc1U, 0xbd1fb37c3d0ea97dU,
  0xbdcd5e5b3d95502fU, 0x3cb525ba3de32975U, 0xbd90529d3db4ca74U, 0x3dcc23b63cd7c316U,
  0x3e06dff63ca82c53U, 0x3e0b5385be0ee870U, 0xbd0bfcfb3e23927bU, 0x3da84605bd95a829U,
  0xbd4d607c3d5d2c67U, 0xbbff99a0bc4f5394U, 0xbdeec6ed3b1cf904U, 0xbd24d385bc4268caU,
  0xbd6634a23dd15060U, 0x3dfacfaf3df27e24U, 0xbdd2523dbe115287U, 0xbd9eb748bd3842d2U,
  0x3dc844cc3cbd2b71U, 0x3d987cf93d917a1eU, 0x3dc47b59bb618a41U, 0xbe065f33bcdaec33U,
  0xbdf3f1953c8a0fbeU, 0x3dc6d28c3dd71564U, 0xbcbc2f8ebe1159f4U, 0x3d78dc7fbd996185U,
  0xbcecba7a3d100049U, 0xbdf21c5e3d40758eU, 0xbd246555bd47c938U, 0xbdf49c3f3d06727fU,
  0x3da77c76be16f5a1U, 0x3d241687bc29d8c8U, 0xbe02d0e0bca8ffcfU, 0x3dee51c1bc88aa6bU,
  0x3e0b5fc73d4ea5aeU, 0x3d9ebf0b3debdfb8U, 0xbbc40ab23db9a857U, 0xbe1a3a203dff9aabU,
  0xbb40d302bd9c7c5fU, 0xbcc0b11abcc219bbU, 0xbd97441c3d3ecb6bU, 0xbd06296a3c027d90U,
  0xbdc145803dce077aU, 0xbd17878f3bca0316U, 0xbda0e32dbdf6b00cU, 0xbd4f9119bdc4a2d2U,
  0x3d7489573ddf76bcU, 0xbde03559bddec5d7U, 0x3deb6d62be0d57deU, 0xb730ecec3d52f5aaU,
  0xbd957d98bdbd6532U, 0xbd2cfcefbd30d516U, 0x3dd383a8bb96e7dcU, 0xbd997c62bd38dba5U,
  0x3dfe1e0d3d35016eU, 0xbbeb2b963d65bd33U, 0x3d2fb04bbbbac74fU, 0x3de51056be1303d4U,
  0x3bc81d183c8afe1aU, 0x3d9c4df33da3e2c6U, 0xbc6b7441bcb5f4c7U, 0xbde291b93cf76926U,
  0xbdec06673de433a2U, 0xbe0c550e3df5fe69U, 0xbd7256d73e07a58eU, 0xbdd26a0dbd5d2763U,
  0xbdade90cbd08de60U, 0xbc82fc66bd803bc4U, 0x3c319d3a3dfd5809U, 0xbd2668ce3e23b14dU,
  0xbde264283dec8e53U, 0x3dbe3301bd561a32U, 0xbde6c0af3c845dbdU, 0xbcc191473d7d8c8bU,
  0x3d36cb4fbded3fafU, 0xbd83d54ebd30cfd2U, 0xbd9559533cd85b3aU, 0x3da265883d3bb066U,
  0x3ded0faabd305426U, 0xbd1f1cf6bcc132fbU, 0x3df8f97abdf1aabdU, 0xbc723c9ebc605380U,
  0xbd18dce63d5afa09U, 0xbd0cd2483db1fde2U, 0x3de5fd8bbd6b38a6U, 0x3d673a82bd2bb18aU,
  0xbcfd33683e0aeec8U, 0xbd993d963cd25634U, 0xbd813db0bcce6b35U, 0x3de738f63d378620U,
  0xbd9e03813e11087cU, 0x3da849e1be08464aU, 0x3dbbc6bf3d78ca4eU, 0xbe06bece3d2ded37U,
  0x3d6845e6bd84a404U, 0x3cf947913c387a9bU, 0xbda1d1a3bde0415bU, 0x3e10c0773db604beU,
  0x3db91b3a3c04dfa7U, 0xbe02bc33bd8b48c6U, 0xbdb3d53fbdd3c184U, 0xbbbe478cbdf0ab25U,
  0xbd3aa6ed3cb42490U, 0xbdeb1394bc2da390U, 0xbd61421dbd883657U, 0xbdaa75503d16ecc5U,
  0x3d98eb48bc3701b9U, 0xbd98de793e14d6d0U, 0x3d6c27223d289773U, 0x3e06cf3bbdebf806U,
  0x3c27f2603b799490U, 0x3cb467b23dd804dbU, 0x3e26012c3e119afcU, 0xbcf6059e3e22a3a5U,
  0x3b99b5eebc8fa817U, 0xbd84f005bdeccf4cU, 0x3d5ee4b1bd79d6ccU, 0x3d30f5e8bd5e1123U,
  0x3d6a94183d50b57fU, 0x3df32b3a3d85f83cU, 0xbd6c43e2bdabb349U, 0xbd9ccb24bb304cf5U,
  0x3dd4a9413dc49dd0U, 0x3e1d2a253d4f17eaU, 0x3c601bf83de561aeU, 0xbd62a303bd91f490U,
  0x3dfd090fbc938319U, 0x3c789b4f3de81327U, 0xbd831fcd3e09c74aU, 0x3d981a393de7a099U,
  0x3d5611823de93f99U, 0xbddbe03a3e0906d4U, 0xbdf7cf723d8fa4a2U, 0x3e16b1ebbd7e4558U,
  0xbd958e77bdc64f7dU, 0xbce75f363dc10c0dU, 0xbde58a203dacb9caU, 0xbdae49623c69e0c5U,
  0xbca443463e21afc1U, 0x3d9075d63cfad86aU, 0xbdb59a503ccc38ccU, 0x3e01989e3d0f490eU,
  0x3d85321dbdc6f1aaU, 0xbd7e35b6bdbd89dbU, 0xbd74456c3d9898fcU, 0xbdbe985c3d5cd7e5U,
  0xbda6b5b23dba3481U, 0x3de0acef3d91b3bfU, 0x3e0e9ebebdb05b0fU, 0x3d912a903cce0c63U,
  0x3d744a8fbdc290afU, 0xbc446bb3bd73fa7eU, 0x3d10ebd73df3d6c2U, 0xbd8f14fd3e0d900fU,
  0x3c3f2fd03c9f49e0U, 0x3c26dc6d3c9f9e41U, 0x3adea7543c0298c6U, 0x3c41b4ff3c680d2fU,
  0x3b36fafabc32bc56U, 0x3b67fc6e3cb4464aU, 0xbb92fb983c7261d1U, 0x3b2e70ac3b5938d8U,
  0xbb30368cbbd3ad81U, 0xbacd2a80bb7e9968U, 0xbbc3d10e3c20a294U, 0x3c9bdf853c767a87U,
  0x3cc523ba3b9e2f3fU, 0x3c858cc2bbf3c366U, 0x3cb8e7fdbc45f2f1U, 0xbb2ff9c63c67e617U,
  0xbc47be77U, 0x3c22641bbb2065b5U, 0x3c07c872bb4e3ad5U, 0xbbe58ead3c5ec7c6U,
  0x3ca69834b9369770U, 0x3c2dfb47bb7ffc18U, 0x3acbd3df3b1ff452U, 0x3cb80380bbcde681U,
  0x3ca1bfd93c347996U, 0xbbbb0e343b00f4d5U, 0x3cd3e49e3c1714b6U, 0xbc410e273cde4ed7U,
  0xbc493459bc5c0227U, 0x3bcc92c2bb809610U, 0xbc50aad63c96e79dU, 0x3bab46463c5de465U,
  0x3e507adbbe0348b3U, 0xbcfe42b03da0a332U, 0xbd1c8430bca20a80U, 0xbe3b5466be2c21d9U,
  0x3e059b793e50be15U, 0x3e5ca9adbe1dc4d0U, 0xbe0b6181be0c3d15U, 0x3cada0c0bd25e628U,
  0xbc9ae2a83d46fc8cU, 0xbe4154033de74696U, 0xbd9d1474be33f064U, 0x3d6d48543e0b97a9U,
  0x3cda5fa83d37731cU, 0x3c23f0703d2135ccU, 0xbe2114203d09841cU, 0x3d80344e3d4118e4U,
  0x3e1017b1bd9c73d6U, 0x3e3bed6b3cd87110U, 0xbe041f8a3e076fa3U, 0xbac60780bdca764bU,
  0xbe2a8611bd74bca8U, 0xbdd0190a3dda3afaU, 0x3b8c63a0be0fa2a0U, 0xbe16e82abe09d9b2U,
  0xbe241f623cfe5260U, 0xbdb403d0bddbe7e6U, 0xbd89071ebd363544U, 0xbd25509cbc4f28d0U,
  0x3e1c40f5be03449dU, 0x3d65b184bd38c6f4U, 0xbe1c401a3dbca6eaU, 0x3cd67ac83e34906fU,
  0x3daa2da53ce0e152U, 0x3d43b7613e4b36b9U, 0x3b6d74923d116e83U, 0x3e421e2cbe0b62faU,
  0x3dc00b8abe19f379U, 0xbe4c7d0bbe5951e6U, 0x3e3c9fa0be320354U, 0x3e462bd73e2e7c1eU,
  0x3e56911abdb1b923U, 0x3cf74c96bdc79425U, 0xbd0c8b9ebdbad819U, 0x3cd8edb4bdd75a08U,
  0x3e4fec523c8bd604U, 0x3df57a163e486468U, 0x3e2581a53d932b07U, 0x3e05778f3e588e1cU,
  0x3e4ef517be12143eU, 0xbd79559fbd676f13U, 0x3e121d493d3a27edU, 0xbdfb774ebe1e0741U,
  0xbc41d6a23e72469eU, 0xbcaa33513e276a74U, 0x3ce96fbfbd8c44d5U, 0xbcb05b6cbe18b8f2U,
  0xbc07b2b6bdf37c74U, 0x3e5496e1be313576U, 0xbda1ff803cda9594U, 0xbdaa027c3d08f318U,
  0xbe21d33b3d60378eU, 0x3c06a8acbcf6d0b0U, 0xbe2308a6bd91917bU, 0x3e31ac7dbc0006b6U,
  0xbe2155c73d38b178U, 0x3e647d85be047118U, 0xbd7075e03e0c2e62U, 0xbe0ad3d1bdefba72U,
